unsigned char tfliteModel[] = {
  0x1c, 0x00, 0x00, 0x00, 0x54, 0x46, 0x4c, 0x33, 0x14, 0x00, 0x20, 0x00,
  0x04, 0x00, 0x08, 0x00, 0x0c, 0x00, 0x10, 0x00, 0x14, 0x00, 0x00, 0x00,
  0x18, 0x00, 0x1c, 0x00, 0x14, 0x00, 0x00, 0x00, 0x03, 0x00, 0x00, 0x00,
  0x18, 0x00, 0x00, 0x00, 0x1c, 0x00, 0x00, 0x00, 0x3c, 0x01, 0x00, 0x00,
  0x1c, 0x00, 0x00, 0x00, 0xe4, 0x00, 0x00, 0x00, 0x48, 0x00, 0x00, 0x00,
  0x01, 0x00, 0x00, 0x00, 0x70, 0x03, 0x00, 0x00, 0x01, 0x00, 0x00, 0x00,
  0x44, 0x01, 0x00, 0x00, 0x0c, 0x00, 0x00, 0x00, 0x28, 0x14, 0x00, 0x00,
  0x24, 0x14, 0x00, 0x00, 0x44, 0x13, 0x00, 0x00, 0xb4, 0x12, 0x00, 0x00,
  0xf0, 0x11, 0x00, 0x00, 0x18, 0x0e, 0x00, 0x00, 0xc0, 0x05, 0x00, 0x00,
  0xe8, 0x03, 0x00, 0x00, 0x08, 0x14, 0x00, 0x00, 0x04, 0x14, 0x00, 0x00,
  0x00, 0x14, 0x00, 0x00, 0xd0, 0x00, 0x00, 0x00, 0x01, 0x00, 0x00, 0x00,
  0x10, 0x00, 0x00, 0x00, 0x0c, 0x00, 0x14, 0x00, 0x10, 0x00, 0x0c, 0x00,
  0x08, 0x00, 0x04, 0x00, 0x0c, 0x00, 0x00, 0x00, 0x10, 0x00, 0x00, 0x00,
  0x18, 0x00, 0x00, 0x00, 0x28, 0x00, 0x00, 0x00, 0x2c, 0x00, 0x00, 0x00,
  0x05, 0x00, 0x00, 0x00, 0x73, 0x65, 0x72, 0x76, 0x65, 0x00, 0x00, 0x00,
  0x0f, 0x00, 0x00, 0x00, 0x73, 0x65, 0x72, 0x76, 0x69, 0x6e, 0x67, 0x5f,
  0x64, 0x65, 0x66, 0x61, 0x75, 0x6c, 0x74, 0x00, 0x01, 0x00, 0x00, 0x00,
  0x14, 0x00, 0x00, 0x00, 0x01, 0x00, 0x00, 0x00, 0x28, 0x00, 0x00, 0x00,
  0x08, 0x00, 0x0c, 0x00, 0x08, 0x00, 0x04, 0x00, 0x08, 0x00, 0x00, 0x00,
  0x09, 0x00, 0x00, 0x00, 0x04, 0x00, 0x00, 0x00, 0x08, 0x00, 0x00, 0x00,
  0x64, 0x65, 0x6e, 0x73, 0x65, 0x5f, 0x33, 0x35, 0x00, 0x00, 0x00, 0x00,
  0x66, 0xed, 0xff, 0xff, 0x04, 0x00, 0x00, 0x00, 0x0e, 0x00, 0x00, 0x00,
  0x64, 0x65, 0x6e, 0x73, 0x65, 0x5f, 0x33, 0x33, 0x5f, 0x69, 0x6e, 0x70,
  0x75, 0x74, 0x00, 0x00, 0x01, 0x00, 0x00, 0x00, 0x0c, 0x00, 0x00, 0x00,
  0x08, 0x00, 0x0c, 0x00, 0x04, 0x00, 0x08, 0x00, 0x08, 0x00, 0x00, 0x00,
  0x08, 0x00, 0x00, 0x00, 0x0b, 0x00, 0x00, 0x00, 0x13, 0x00, 0x00, 0x00,
  0x6d, 0x69, 0x6e, 0x5f, 0x72, 0x75, 0x6e, 0x74, 0x69, 0x6d, 0x65, 0x5f,
  0x76, 0x65, 0x72, 0x73, 0x69, 0x6f, 0x6e, 0x00, 0xb6, 0xed, 0xff, 0xff,
  0x04, 0x00, 0x00, 0x00, 0x10, 0x00, 0x00, 0x00, 0x31, 0x2e, 0x35, 0x2e,
  0x30, 0x00, 0x00, 0x00, 0x00, 0x00, 0x00, 0x00, 0x00, 0x00, 0x00, 0x00,
  0x0f, 0x00, 0x00, 0x00, 0x4d, 0x4c, 0x49, 0x52, 0x20, 0x43, 0x6f, 0x6e,
  0x76, 0x65, 0x72, 0x74, 0x65, 0x64, 0x2e, 0x00, 0x00, 0x00, 0x0e, 0x00,
  0x18, 0x00, 0x04, 0x00, 0x08, 0x00, 0x0c, 0x00, 0x10, 0x00, 0x14, 0x00,
  0x0e, 0x00, 0x00, 0x00, 0x14, 0x00, 0x00, 0x00, 0x3c, 0x00, 0x00, 0x00,
  0x40, 0x00, 0x00, 0x00, 0x44, 0x00, 0x00, 0x00, 0x50, 0x00, 0x00, 0x00,
  0x0a, 0x00, 0x00, 0x00, 0x70, 0x12, 0x00, 0x00, 0x24, 0x12, 0x00, 0x00,
  0xac, 0x11, 0x00, 0x00, 0x28, 0x11, 0x00, 0x00, 0x50, 0x10, 0x00, 0x00,
  0x78, 0x0c, 0x00, 0x00, 0x20, 0x04, 0x00, 0x00, 0xfc, 0x01, 0x00, 0x00,
  0xfc, 0x00, 0x00, 0x00, 0x60, 0x00, 0x00, 0x00, 0x01, 0x00, 0x00, 0x00,
  0x00, 0x00, 0x00, 0x00, 0x01, 0x00, 0x00, 0x00, 0x09, 0x00, 0x00, 0x00,
  0x03, 0x00, 0x00, 0x00, 0x84, 0x01, 0x00, 0x00, 0xa8, 0x00, 0x00, 0x00,
  0x10, 0x00, 0x00, 0x00, 0x04, 0x00, 0x00, 0x00, 0x6d, 0x61, 0x69, 0x6e,
  0x00, 0x00, 0x00, 0x00, 0x7a, 0xff, 0xff, 0xff, 0x00, 0x00, 0x00, 0x08,
  0x18, 0x00, 0x00, 0x00, 0x0c, 0x00, 0x00, 0x00, 0x04, 0x00, 0x00, 0x00,
  0x9c, 0xed, 0xff, 0xff, 0x01, 0x00, 0x00, 0x00, 0x09, 0x00, 0x00, 0x00,
  0x03, 0x00, 0x00, 0x00, 0x08, 0x00, 0x00, 0x00, 0x06, 0x00, 0x00, 0x00,
  0x01, 0x00, 0x00, 0x00, 0x28, 0xee, 0xff, 0xff, 0x14, 0x00, 0x00, 0x00,
  0x0a, 0x00, 0x00, 0x00, 0x18, 0x00, 0x00, 0x00, 0x40, 0x00, 0x00, 0x00,
  0x30, 0x00, 0x00, 0x00, 0x02, 0x00, 0x00, 0x00, 0x01, 0x00, 0x00, 0x00,
  0x06, 0x00, 0x00, 0x00, 0x19, 0x00, 0x00, 0x00, 0x53, 0x74, 0x61, 0x74,
  0x65, 0x66, 0x75, 0x6c, 0x50, 0x61, 0x72, 0x74, 0x69, 0x74, 0x69, 0x6f,
  0x6e, 0x65, 0x64, 0x43, 0x61, 0x6c, 0x6c, 0x3a, 0x30, 0x00, 0x00, 0x00,
  0x02, 0x00, 0x00, 0x00, 0xff, 0xff, 0xff, 0xff, 0x06, 0x00, 0x00, 0x00,
  0xf0, 0xee, 0xff, 0xff, 0x00, 0x00, 0x0e, 0x00, 0x14, 0x00, 0x00, 0x00,
  0x08, 0x00, 0x0c, 0x00, 0x07, 0x00, 0x10, 0x00, 0x0e, 0x00, 0x00, 0x00,
  0x00, 0x00, 0x00, 0x08, 0x1c, 0x00, 0x00, 0x00, 0x10, 0x00, 0x00, 0x00,
  0x04, 0x00, 0x00, 0x00, 0x26, 0xff, 0xff, 0xff, 0x00, 0x00, 0x00, 0x01,
  0x01, 0x00, 0x00, 0x00, 0x08, 0x00, 0x00, 0x00, 0x03, 0x00, 0x00, 0x00,
  0x07, 0x00, 0x00, 0x00, 0x05, 0x00, 0x00, 0x00, 0x02, 0x00, 0x00, 0x00,
  0xc0, 0xee, 0xff, 0xff, 0x14, 0x00, 0x00, 0x00, 0x09, 0x00, 0x00, 0x00,
  0x18, 0x00, 0x00, 0x00, 0x80, 0x00, 0x00, 0x00, 0x70, 0x00, 0x00, 0x00,
  0x02, 0x00, 0x00, 0x00, 0x01, 0x00, 0x00, 0x00, 0x10, 0x00, 0x00, 0x00,
  0x58, 0x00, 0x00, 0x00, 0x73, 0x65, 0x71, 0x75, 0x65, 0x6e, 0x74, 0x69,
  0x61, 0x6c, 0x5f, 0x31, 0x33, 0x2f, 0x64, 0x65, 0x6e, 0x73, 0x65, 0x5f,
  0x33, 0x34, 0x2f, 0x4d, 0x61, 0x74, 0x4d, 0x75, 0x6c, 0x3b, 0x73, 0x65,
  0x71, 0x75, 0x65, 0x6e, 0x74, 0x69, 0x61, 0x6c, 0x5f, 0x31, 0x33, 0x2f,
  0x64, 0x65, 0x6e, 0x73, 0x65, 0x5f, 0x33, 0x34, 0x2f, 0x52, 0x65, 0x6c,
  0x75, 0x3b, 0x73, 0x65, 0x71, 0x75, 0x65, 0x6e, 0x74, 0x69, 0x61, 0x6c,
  0x5f, 0x31, 0x33, 0x2f, 0x64, 0x65, 0x6e, 0x73, 0x65, 0x5f, 0x33, 0x34,
  0x2f, 0x42, 0x69, 0x61, 0x73, 0x41, 0x64, 0x64, 0x00, 0x00, 0x00, 0x00,
  0x02, 0x00, 0x00, 0x00, 0xff, 0xff, 0xff, 0xff, 0x10, 0x00, 0x00, 0x00,
  0xc8, 0xef, 0xff, 0xff, 0x00, 0x00, 0x0e, 0x00, 0x16, 0x00, 0x00, 0x00,
  0x08, 0x00, 0x0c, 0x00, 0x07, 0x00, 0x10, 0x00, 0x0e, 0x00, 0x00, 0x00,
  0x00, 0x00, 0x00, 0x08, 0x24, 0x00, 0x00, 0x00, 0x18, 0x00, 0x00, 0x00,
  0x0c, 0x00, 0x00, 0x00, 0x00, 0x00, 0x06, 0x00, 0x08, 0x00, 0x07, 0x00,
  0x06, 0x00, 0x00, 0x00, 0x00, 0x00, 0x00, 0x01, 0x01, 0x00, 0x00, 0x00,
  0x07, 0x00, 0x00, 0x00, 0x03, 0x00, 0x00, 0x00, 0x00, 0x00, 0x00, 0x00,
  0x04, 0x00, 0x00, 0x00, 0x03, 0x00, 0x00, 0x00, 0x0c, 0x00, 0x10, 0x00,
  0x0b, 0x00, 0x00, 0x00, 0x0c, 0x00, 0x04, 0x00, 0x0c, 0x00, 0x00, 0x00,
  0x09, 0x00, 0x00, 0x00, 0x00, 0x00, 0x00, 0x09, 0x01, 0x00, 0x00, 0x00,
  0xbc, 0xef, 0xff, 0xff, 0x14, 0x00, 0x00, 0x00, 0x08, 0x00, 0x00, 0x00,
  0x18, 0x00, 0x00, 0x00, 0x80, 0x00, 0x00, 0x00, 0x70, 0x00, 0x00, 0x00,
  0x02, 0x00, 0x00, 0x00, 0x01, 0x00, 0x00, 0x00, 0x20, 0x00, 0x00, 0x00,
  0x58, 0x00, 0x00, 0x00, 0x73, 0x65, 0x71, 0x75, 0x65, 0x6e, 0x74, 0x69,
  0x61, 0x6c, 0x5f, 0x31, 0x33, 0x2f, 0x64, 0x65, 0x6e, 0x73, 0x65, 0x5f,
  0x33, 0x33, 0x2f, 0x4d, 0x61, 0x74, 0x4d, 0x75, 0x6c, 0x3b, 0x73, 0x65,
  0x71, 0x75, 0x65, 0x6e, 0x74, 0x69, 0x61, 0x6c, 0x5f, 0x31, 0x33, 0x2f,
  0x64, 0x65, 0x6e, 0x73, 0x65, 0x5f, 0x33, 0x33, 0x2f, 0x52, 0x65, 0x6c,
  0x75, 0x3b, 0x73, 0x65, 0x71, 0x75, 0x65, 0x6e, 0x74, 0x69, 0x61, 0x6c,
  0x5f, 0x31, 0x33, 0x2f, 0x64, 0x65, 0x6e, 0x73, 0x65, 0x5f, 0x33, 0x33,
  0x2f, 0x42, 0x69, 0x61, 0x73, 0x41, 0x64, 0x64, 0x00, 0x00, 0x00, 0x00,
  0x02, 0x00, 0x00, 0x00, 0xff, 0xff, 0xff, 0xff, 0x20, 0x00, 0x00, 0x00,
  0xdc, 0xef, 0xff, 0xff, 0xbe, 0xf0, 0xff, 0xff, 0x04, 0x00, 0x00, 0x00,
  0x80, 0x01, 0x00, 0x00, 0xba, 0xf8, 0x17, 0x3c, 0x26, 0xac, 0xab, 0x3e,
  0x5c, 0x15, 0xaf, 0xbe, 0x83, 0xfe, 0xb1, 0xbd, 0x04, 0x99, 0x5d, 0x3e,
  0x9d, 0x84, 0xa4, 0x3e, 0x34, 0xdc, 0x95, 0xbe, 0xd1, 0x55, 0xeb, 0x3e,
  0xe1, 0xc4, 0x42, 0xbe, 0xcf, 0x76, 0x0b, 0xbc, 0x67, 0x12, 0x96, 0xbd,
  0x1b, 0x6d, 0x75, 0x3d, 0x04, 0xe0, 0xd2, 0xbe, 0x1b, 0x29, 0xcd, 0xbd,
  0x9b, 0x84, 0xa7, 0x3e, 0xcd, 0xce, 0x35, 0xbe, 0xba, 0xf9, 0xac, 0x3e,
  0x34, 0x8c, 0x6f, 0x3e, 0x3c, 0x56, 0xc5, 0x3d, 0x28, 0x8e, 0xba, 0xbe,
  0xdd, 0xcd, 0x38, 0x3f, 0xe8, 0xc2, 0x33, 0x3f, 0xb3, 0xa0, 0x25, 0x3e,
  0xc2, 0x72, 0x04, 0xbf, 0xbf, 0x7d, 0x6f, 0x3e, 0xd4, 0x51, 0x2d, 0x3f,
  0x45, 0x0b, 0x0c, 0xc0, 0xda, 0xf3, 0xd5, 0x3d, 0xe6, 0x33, 0x8a, 0x3e,
  0x8a, 0xd8, 0xdf, 0xbd, 0x11, 0x08, 0x59, 0xbe, 0xe4, 0x03, 0x3f, 0xbd,
  0x10, 0x41, 0x1f, 0xbd, 0xd8, 0x46, 0xbd, 0x3e, 0xea, 0x4f, 0x78, 0xbe,
  0xaa, 0x71, 0x94, 0x3e, 0xeb, 0xd0, 0x26, 0x3e, 0x11, 0x6d, 0x26, 0x3e,
  0xfe, 0x5d, 0x07, 0x3e, 0x39, 0x58, 0x69, 0xbe, 0x27, 0x2c, 0x8d, 0x3e,
  0x27, 0x6f, 0x41, 0x3d, 0x6b, 0xaa, 0x97, 0xbd, 0xaf, 0x01, 0x6e, 0x3d,
  0xe6, 0x4b, 0xa2, 0xbe, 0xff, 0xb4, 0x0a, 0xbe, 0xb0, 0x72, 0x37, 0x3c,
  0x1c, 0xb7, 0x9c, 0x3e, 0x3f, 0xc5, 0x1f, 0xbf, 0x98, 0xdf, 0x70, 0xbf,
  0xfc, 0xd3, 0xa0, 0xbf, 0x58, 0xd8, 0x7b, 0x3f, 0xb7, 0x93, 0x43, 0xbf,
  0x28, 0x57, 0x68, 0xc0, 0x59, 0x0e, 0x11, 0xc0, 0x0e, 0x72, 0xbb, 0xc0,
  0xe1, 0x31, 0xaf, 0xbe, 0x48, 0x77, 0x7d, 0xbf, 0xf5, 0x88, 0x20, 0x3f,
  0x0d, 0x47, 0x86, 0xbe, 0x7b, 0x8f, 0x8b, 0xbe, 0x82, 0x62, 0xa8, 0x3f,
  0xfb, 0xde, 0xe1, 0x3e, 0x9b, 0x5d, 0x6b, 0xbf, 0x00, 0x20, 0x87, 0x3d,
  0xfb, 0x7a, 0xa0, 0x3e, 0xb4, 0xc5, 0x2e, 0xbd, 0xa3, 0xed, 0xf3, 0x3e,
  0xe4, 0x18, 0x41, 0x3b, 0x98, 0x13, 0x09, 0x3d, 0xd8, 0xf4, 0xf4, 0xbe,
  0x79, 0xac, 0x1b, 0x3c, 0x68, 0xe3, 0xf2, 0xbd, 0x47, 0x82, 0x22, 0x3e,
  0x99, 0xab, 0x0c, 0x3e, 0x5a, 0xa5, 0x5c, 0xbe, 0xf8, 0x73, 0x97, 0xbe,
  0x40, 0x57, 0xa5, 0xbc, 0x62, 0x4e, 0x1c, 0xbd, 0x25, 0x0b, 0xa6, 0x3e,
  0x03, 0xdd, 0x94, 0x3f, 0x45, 0x4e, 0x34, 0xbe, 0x40, 0x5f, 0xd2, 0x3f,
  0xb3, 0x15, 0x95, 0xbf, 0x60, 0x01, 0xab, 0xbf, 0x4a, 0x6d, 0x48, 0x3f,
  0x16, 0xfb, 0xe5, 0x3f, 0x9d, 0x9b, 0x3c, 0x3f, 0xce, 0x04, 0x59, 0xbe,
  0x4a, 0xf3, 0x9b, 0x3f, 0xef, 0x56, 0x89, 0x3d, 0xf4, 0x07, 0x62, 0x3e,
  0xe2, 0x88, 0x19, 0xbe, 0x96, 0xf9, 0x72, 0xbf, 0x66, 0x05, 0x69, 0x3c,
  0x3c, 0x7b, 0xae, 0x3e, 0x1e, 0xf2, 0xff, 0xff, 0x10, 0x00, 0x00, 0x00,
  0x07, 0x00, 0x00, 0x00, 0x14, 0x00, 0x00, 0x00, 0x34, 0x00, 0x00, 0x00,
  0x02, 0x00, 0x00, 0x00, 0x06, 0x00, 0x00, 0x00, 0x10, 0x00, 0x00, 0x00,
  0x1d, 0x00, 0x00, 0x00, 0x73, 0x65, 0x71, 0x75, 0x65, 0x6e, 0x74, 0x69,
  0x61, 0x6c, 0x5f, 0x31, 0x33, 0x2f, 0x64, 0x65, 0x6e, 0x73, 0x65, 0x5f,
  0x33, 0x35, 0x2f, 0x4d, 0x61, 0x74, 0x4d, 0x75, 0x6c, 0x00, 0x00, 0x00,
  0xb0, 0xf1, 0xff, 0xff, 0x92, 0xf2, 0xff, 0xff, 0x04, 0x00, 0x00, 0x00,
  0x00, 0x08, 0x00, 0x00, 0x70, 0x52, 0x12, 0xbe, 0xa8, 0xa8, 0x84, 0x3e,
  0xef, 0xe3, 0x8c, 0xbd, 0x25, 0x34, 0x90, 0xbe, 0x1e, 0xa3, 0x86, 0xc0,
  0x1a, 0x2c, 0xed, 0xbd, 0x06, 0xf1, 0xc3, 0x3e, 0xc8, 0xcf, 0x9e, 0xbe,
  0x75, 0x31, 0xb4, 0x3e, 0x32, 0x71, 0x57, 0x3e, 0x6b, 0x14, 0x2e, 0x3e,
  0x27, 0x13, 0x5f, 0x3b, 0x97, 0xd3, 0x9d, 0xbf, 0x68, 0x78, 0x87, 0x3e,
  0xb5, 0x3d, 0x65, 0x3f, 0x18, 0xab, 0xed, 0x3e, 0xbc, 0xc8, 0x36, 0xbf,
  0x7b, 0x86, 0x06, 0xbc, 0x3b, 0xaf, 0x55, 0x3e, 0xfc, 0x0f, 0x08, 0xbe,
  0x66, 0x9d, 0x9d, 0x3e, 0x4a, 0xbb, 0xda, 0xbe, 0xd5, 0x68, 0x6c, 0x3f,
  0x4d, 0x6f, 0xbf, 0xbd, 0x4c, 0x39, 0x5f, 0xbd, 0xa0, 0xc8, 0xbe, 0x3e,
  0x9b, 0x24, 0xdd, 0xbf, 0x9e, 0x83, 0x92, 0x3e, 0x67, 0x34, 0x8c, 0xbf,
  0xa1, 0x75, 0x03, 0x3f, 0xc4, 0xbe, 0x95, 0xbe, 0xd4, 0x47, 0x0d, 0xc0,
  0x05, 0x7f, 0xa7, 0xbd, 0x47, 0xaa, 0x28, 0x3f, 0x9c, 0x80, 0x4c, 0x3f,
  0xc8, 0xea, 0x71, 0xbf, 0x6d, 0xf7, 0x0e, 0x3e, 0x3d, 0x7a, 0x95, 0xbe,
  0xef, 0xa0, 0x99, 0x3e, 0x15, 0x02, 0x0b, 0xbf, 0xd6, 0xe7, 0x06, 0x3f,
  0x60, 0x04, 0x4b, 0x3d, 0x2b, 0xee, 0x09, 0x3f, 0xff, 0x5d, 0x8d, 0x3c,
  0x6c, 0xd0, 0x63, 0x40, 0xef, 0x00, 0xf3, 0x3d, 0x85, 0x1f, 0xb7, 0x3e,
  0x56, 0x51, 0x7c, 0xbe, 0x62, 0xf9, 0x06, 0x3d, 0x75, 0xcf, 0xa4, 0x3e,
  0xdc, 0xd6, 0xfa, 0x3e, 0xdb, 0xd9, 0x4d, 0x3d, 0x83, 0x9e, 0x9f, 0x3c,
  0x28, 0x8e, 0x00, 0x3f, 0x80, 0x11, 0x33, 0xbe, 0x9b, 0xec, 0x61, 0xbf,
  0xf1, 0x30, 0x11, 0x3e, 0x37, 0x3e, 0x0f, 0x3f, 0x3f, 0x82, 0x8d, 0xbc,
  0x11, 0x0b, 0x71, 0x3f, 0x71, 0x26, 0xc9, 0x3d, 0xe7, 0x62, 0x1f, 0xbf,
  0x9b, 0x2d, 0x51, 0x3d, 0x07, 0xbb, 0xb1, 0xbd, 0x26, 0x4f, 0x93, 0x3d,
  0xb1, 0x0c, 0x8a, 0x3e, 0x94, 0x57, 0x27, 0x3d, 0xa4, 0x72, 0x2f, 0xbf,
  0x35, 0xcc, 0x44, 0xbe, 0xa6, 0x83, 0xdc, 0xbc, 0x8d, 0xd5, 0x98, 0xbe,
  0x6a, 0x5b, 0x47, 0xbd, 0x77, 0x82, 0x8a, 0x3f, 0x5a, 0x0d, 0xea, 0xbe,
  0x38, 0x5c, 0x77, 0x3e, 0x5d, 0xb8, 0x00, 0xbf, 0xb9, 0x10, 0xb1, 0xbe,
  0x95, 0xfa, 0xe0, 0x3e, 0xff, 0x0f, 0xf7, 0xbf, 0xeb, 0x15, 0x03, 0xbc,
  0xff, 0x95, 0xb7, 0xbe, 0x6c, 0xbf, 0x0b, 0xbf, 0xfd, 0x2c, 0x13, 0xbf,
  0x44, 0x1f, 0x7c, 0x3c, 0xd6, 0x18, 0xb8, 0x3e, 0xe0, 0xc8, 0xb6, 0xbd,
  0x26, 0xa8, 0x1d, 0xbe, 0x9b, 0xbe, 0x26, 0x3f, 0x17, 0xb2, 0x04, 0xbf,
  0x21, 0xad, 0x2b, 0xbe, 0x5c, 0xf5, 0x83, 0xbf, 0xf7, 0x08, 0x6f, 0x3e,
  0xd2, 0x0d, 0xd3, 0x3e, 0x9e, 0x4a, 0xbf, 0x3e, 0xe9, 0x4a, 0xd5, 0x3d,
  0x1e, 0x57, 0xf3, 0xbf, 0x3f, 0x7a, 0xac, 0x3d, 0x89, 0x72, 0x60, 0xbe,
  0x44, 0xfb, 0x05, 0x3e, 0xea, 0x27, 0x99, 0xbd, 0x32, 0x42, 0xd8, 0x3f,
  0x07, 0x73, 0xd5, 0xbd, 0x89, 0x86, 0xb7, 0x3e, 0xe4, 0x35, 0x06, 0x3e,
  0x3d, 0x83, 0x60, 0x3e, 0x2a, 0xee, 0x18, 0x3f, 0x28, 0x86, 0x3d, 0xbe,
  0x9e, 0x91, 0x8e, 0xbe, 0xd3, 0x71, 0x0d, 0x40, 0xc6, 0x8e, 0x5f, 0xbf,
  0x34, 0x02, 0x10, 0x3f, 0xf0, 0x42, 0x16, 0xbd, 0x94, 0xb6, 0xca, 0x3e,
  0x46, 0x7e, 0x89, 0x3e, 0x24, 0xb4, 0xae, 0x3d, 0x11, 0x02, 0x6a, 0xbf,
  0xb6, 0x9e, 0x3c, 0xbd, 0x4a, 0xda, 0x21, 0x3e, 0x8f, 0x6c, 0x1b, 0x3f,
  0xf7, 0x7e, 0xb9, 0xbe, 0x7f, 0xed, 0x1c, 0xbe, 0x52, 0x46, 0xde, 0x3f,
  0xbf, 0xdb, 0x72, 0x3e, 0x70, 0xd1, 0x39, 0x3c, 0xcf, 0x1e, 0x41, 0x3e,
  0x11, 0x4e, 0xf9, 0x3d, 0xdb, 0x27, 0x21, 0xbc, 0x12, 0x66, 0x86, 0x3f,
  0xd0, 0x1b, 0x01, 0xbf, 0xc3, 0xbe, 0x16, 0xbe, 0x95, 0x80, 0xcb, 0x3d,
  0x9f, 0x8f, 0xa4, 0x3d, 0x41, 0xc0, 0xcb, 0xbe, 0xb5, 0xd2, 0x23, 0xbf,
  0x17, 0xe1, 0xab, 0xbd, 0x4b, 0xca, 0x3b, 0xbf, 0xae, 0x3e, 0x84, 0xbf,
  0xfc, 0xcb, 0x19, 0x3f, 0xfc, 0xb1, 0x26, 0xbc, 0x43, 0xec, 0x75, 0xbd,
  0x09, 0x02, 0x07, 0x40, 0x0e, 0xa3, 0xa4, 0x3d, 0x99, 0xf4, 0xa4, 0x3f,
  0xce, 0x09, 0x5e, 0xbe, 0x4f, 0xb7, 0xa4, 0x3f, 0x2d, 0x24, 0xd9, 0x3e,
  0x18, 0xe6, 0x82, 0x3f, 0xdf, 0x4e, 0xff, 0x3e, 0x07, 0xd1, 0x2a, 0x3e,
  0xdd, 0x48, 0x4e, 0x3e, 0x12, 0xa7, 0x1c, 0x3a, 0x09, 0x02, 0x86, 0x3e,
  0xad, 0x12, 0x73, 0x3e, 0xe1, 0x27, 0x6f, 0xbf, 0xc4, 0x1e, 0xf0, 0xbf,
  0x07, 0x46, 0xf5, 0x3c, 0xc9, 0x2c, 0x54, 0xbe, 0xa9, 0x7b, 0xca, 0x3d,
  0xd4, 0x09, 0x20, 0x3e, 0x85, 0x64, 0x5b, 0xbd, 0xaf, 0xfc, 0x35, 0xbf,
  0x97, 0x75, 0x71, 0xbd, 0xab, 0x8b, 0x4d, 0x3d, 0x61, 0xa8, 0xc9, 0x3e,
  0x5f, 0x85, 0x4d, 0x3d, 0x1d, 0x6c, 0xc8, 0xbd, 0xf9, 0x1d, 0xa3, 0x3e,
  0x19, 0x29, 0x38, 0xbf, 0xc2, 0x08, 0x86, 0xbe, 0x1e, 0xed, 0xbf, 0x3e,
  0x24, 0x3a, 0x6e, 0xbb, 0xac, 0xf0, 0xd0, 0x3d, 0x21, 0xd4, 0x85, 0x3f,
  0x2c, 0x59, 0xab, 0x3e, 0x34, 0x4c, 0x09, 0xc0, 0xca, 0xad, 0x4f, 0xbe,
  0x84, 0x0a, 0x82, 0xbe, 0x13, 0x25, 0x4c, 0xbb, 0x72, 0x5f, 0x56, 0x3e,
  0x73, 0x6c, 0x58, 0x3f, 0x00, 0xbe, 0x66, 0x3e, 0x1e, 0x0c, 0xb6, 0xbd,
  0x1d, 0x5c, 0x07, 0xc0, 0x51, 0xc8, 0xcd, 0xbe, 0x92, 0x52, 0x31, 0x3d,
  0x0d, 0x46, 0x2e, 0xc0, 0xa1, 0x13, 0x97, 0xbe, 0x87, 0x49, 0xf4, 0xbd,
  0xde, 0xd8, 0xdb, 0xbe, 0xd1, 0x26, 0x9d, 0xbe, 0x40, 0x49, 0x55, 0xbe,
  0x1f, 0x5f, 0xce, 0x3f, 0xbc, 0x4b, 0x71, 0x3e, 0x48, 0x78, 0xb5, 0x3b,
  0x88, 0xed, 0x9c, 0x3d, 0xc1, 0x65, 0xfe, 0xbe, 0x8d, 0x0f, 0xc3, 0x3f,
  0x32, 0xf7, 0x19, 0xbd, 0x3b, 0x5b, 0x16, 0xbe, 0x89, 0xba, 0x72, 0x3c,
  0xce, 0x3e, 0x0f, 0x3f, 0x22, 0x02, 0xdf, 0xbe, 0x15, 0x82, 0xa8, 0x3c,
  0x85, 0xca, 0x93, 0xbf, 0x12, 0xb6, 0x12, 0xc0, 0xc9, 0x96, 0xc2, 0xbe,
  0x77, 0xfa, 0xd4, 0xbe, 0x4f, 0x91, 0x96, 0x3d, 0xe7, 0x0d, 0xb0, 0xbf,
  0x2c, 0x82, 0x1e, 0x3c, 0x91, 0x9e, 0x48, 0xbe, 0xeb, 0x53, 0xa0, 0x3e,
  0x33, 0xf9, 0x50, 0x3e, 0x5c, 0xd6, 0x2e, 0xbd, 0x46, 0x0c, 0xba, 0x3f,
  0x25, 0x13, 0x76, 0x3d, 0x87, 0x09, 0xc7, 0xba, 0xa3, 0x50, 0x1f, 0x3f,
  0xfa, 0xe5, 0x0f, 0xc0, 0x8c, 0x98, 0xf0, 0x3d, 0xf5, 0xc4, 0xf5, 0xbe,
  0x8c, 0x65, 0x29, 0x3c, 0xb2, 0x08, 0x06, 0x3e, 0x84, 0x40, 0xae, 0xbd,
  0x57, 0x4e, 0x73, 0x3f, 0xaa, 0x33, 0x12, 0xbe, 0x64, 0x75, 0x4e, 0x3e,
  0x9b, 0xe4, 0xc2, 0xbe, 0x3a, 0x14, 0x8a, 0x3e, 0x51, 0x50, 0x7a, 0x3d,
  0xea, 0x76, 0xd9, 0x3d, 0x0c, 0x8a, 0x28, 0x3c, 0xaf, 0xe1, 0x3a, 0xbd,
  0x06, 0x3b, 0xa2, 0xbf, 0x89, 0xe4, 0x19, 0x3e, 0xde, 0x77, 0x7b, 0xbf,
  0xe8, 0x69, 0x09, 0xbe, 0xcf, 0x33, 0x5e, 0xbe, 0x10, 0xc3, 0xa3, 0x3e,
  0x2f, 0x97, 0x0c, 0xbe, 0x07, 0xc7, 0x02, 0xbf, 0x77, 0x6d, 0x1e, 0xbf,
  0xc1, 0xb4, 0x6f, 0xbf, 0xdf, 0x0c, 0x48, 0xbf, 0x5a, 0x76, 0x9c, 0x3d,
  0x63, 0xaa, 0xe4, 0xbd, 0x8d, 0xdc, 0x1c, 0x3f, 0x7d, 0xd4, 0x5b, 0x3e,
  0x00, 0xf4, 0xa5, 0xbc, 0x37, 0xf9, 0xbc, 0x3f, 0xfb, 0x55, 0xa9, 0x3f,
  0x07, 0xcb, 0x9b, 0x3d, 0x31, 0x88, 0xb1, 0xbe, 0xb4, 0xb9, 0x3e, 0x3d,
  0x07, 0x8c, 0x80, 0x3e, 0x4b, 0x55, 0xb3, 0x3f, 0x85, 0xa0, 0x90, 0xbe,
  0xcb, 0xbb, 0x94, 0xbe, 0x88, 0xbf, 0x00, 0xbe, 0x58, 0xa0, 0xa3, 0xbe,
  0xfd, 0x8c, 0xb3, 0xbe, 0x09, 0x5e, 0x83, 0xbe, 0x01, 0xea, 0xce, 0xbe,
  0x20, 0xa3, 0xc4, 0xbe, 0xe5, 0xec, 0xbe, 0xbe, 0xe7, 0xd9, 0xe1, 0xbe,
  0x0a, 0xb0, 0xa3, 0xbd, 0xed, 0x12, 0xb4, 0x3d, 0xe0, 0x3f, 0x85, 0x3d,
  0xe2, 0x2a, 0xb0, 0xbe, 0x4d, 0xaa, 0xcf, 0xbe, 0xbe, 0x5c, 0x00, 0xbe,
  0xf7, 0x2f, 0xed, 0xbc, 0x70, 0xc9, 0x16, 0xbd, 0x15, 0x6f, 0xb1, 0xbe,
  0x30, 0x93, 0x03, 0xbf, 0x30, 0xfd, 0x68, 0xbe, 0xed, 0x3f, 0xaf, 0xbd,
  0x59, 0x90, 0x2e, 0x3e, 0xcc, 0x94, 0x4a, 0xbe, 0xd9, 0x20, 0xcf, 0x3d,
  0xce, 0x19, 0x03, 0x3e, 0xec, 0xad, 0x0d, 0x3d, 0x18, 0x16, 0x02, 0x3d,
  0xae, 0x80, 0x78, 0xbe, 0xb7, 0xab, 0x5a, 0x3e, 0xea, 0x38, 0xe2, 0xbd,
  0x7e, 0xc7, 0x43, 0x3e, 0xac, 0xcc, 0x89, 0x3e, 0x98, 0x67, 0x73, 0x3d,
  0xed, 0xb1, 0x52, 0xbc, 0x08, 0x1e, 0x9d, 0x3d, 0xb3, 0xcc, 0x5f, 0x3f,
  0x92, 0xbf, 0x71, 0x3e, 0x6b, 0x05, 0xeb, 0xbe, 0x15, 0x91, 0x96, 0x3e,
  0x7e, 0xce, 0xb6, 0x3f, 0x1c, 0xae, 0x27, 0x3c, 0xb1, 0x12, 0x2a, 0x3d,
  0xfe, 0x35, 0x17, 0x3e, 0x49, 0x20, 0x16, 0xbf, 0x20, 0x85, 0x19, 0x3f,
  0x8c, 0xae, 0x17, 0xc0, 0xe1, 0xad, 0x71, 0x3c, 0x0c, 0x0c, 0x57, 0xbf,
  0xc4, 0x7a, 0x1d, 0xbe, 0xaa, 0x90, 0x12, 0x3e, 0xeb, 0xc5, 0x83, 0xbe,
  0x35, 0xa4, 0x81, 0x3e, 0x83, 0xd0, 0xd7, 0x3d, 0x90, 0x9a, 0xb0, 0xbf,
  0x39, 0xc0, 0xd7, 0xbd, 0xd8, 0xb4, 0xc1, 0xbc, 0x7c, 0x1d, 0xa7, 0xbf,
  0x73, 0x64, 0x6e, 0xbf, 0x70, 0xe7, 0xd5, 0xbd, 0x6d, 0xb9, 0x07, 0xbe,
  0xc5, 0xda, 0xc9, 0xbe, 0xe3, 0x52, 0xdf, 0xbd, 0x9c, 0x63, 0xf8, 0xbe,
  0xba, 0xde, 0xa7, 0xbd, 0x6b, 0xd8, 0xd4, 0x3c, 0x49, 0x8e, 0x4a, 0xbd,
  0xa4, 0x3d, 0xe4, 0x3d, 0x74, 0xdf, 0x45, 0xbf, 0x3a, 0x2a, 0x97, 0x3b,
  0x02, 0x29, 0x5b, 0xbd, 0x2a, 0x32, 0x99, 0xbe, 0x2c, 0x15, 0x8a, 0x3e,
  0x35, 0x13, 0x8f, 0x3e, 0xe2, 0xb6, 0xd9, 0x3c, 0xc7, 0x6e, 0x8e, 0x3e,
  0x63, 0xaa, 0x28, 0xbf, 0xc8, 0xe8, 0xea, 0x3e, 0x04, 0x94, 0x2d, 0xbf,
  0xfd, 0xb7, 0x6c, 0xbd, 0xad, 0xd6, 0xa6, 0x3d, 0xbb, 0x08, 0x36, 0xbe,
  0xa9, 0xd1, 0x0a, 0x3e, 0x32, 0xdd, 0x89, 0x3d, 0xfd, 0x4b, 0xc0, 0x3e,
  0x14, 0xa9, 0x12, 0xbd, 0xe8, 0xc7, 0xec, 0xbe, 0x54, 0xbe, 0x2e, 0x3e,
  0x0d, 0x3c, 0xc6, 0xbd, 0x93, 0x62, 0x8a, 0xc0, 0xad, 0x04, 0xc4, 0x3c,
  0xe9, 0x94, 0x09, 0xbd, 0xfd, 0x99, 0xcd, 0x3d, 0x43, 0x64, 0x0b, 0x3d,
  0xde, 0x1c, 0x94, 0xbc, 0x8a, 0x14, 0x38, 0xbe, 0x3b, 0xf4, 0x0c, 0xbf,
  0xb8, 0x08, 0xd8, 0x3d, 0x83, 0x10, 0xa0, 0x3d, 0x04, 0x70, 0xcd, 0xbe,
  0xf3, 0x8d, 0x80, 0x3f, 0x54, 0x17, 0xbf, 0xba, 0x51, 0x70, 0xf7, 0x3d,
  0x7b, 0xdf, 0xb8, 0x3e, 0x89, 0xce, 0xb7, 0x3d, 0x8a, 0x13, 0x42, 0x3e,
  0x69, 0x76, 0x0c, 0xbe, 0x20, 0x60, 0xcf, 0x3d, 0x7e, 0x72, 0x4a, 0xbf,
  0x39, 0x57, 0x19, 0xbe, 0xd3, 0xc6, 0x52, 0xbf, 0x78, 0x81, 0x8a, 0xbe,
  0x16, 0x4c, 0xb4, 0xbe, 0x30, 0x9e, 0x20, 0x3f, 0xa5, 0xd6, 0x97, 0x3e,
  0xb8, 0x2f, 0x90, 0x3d, 0x5d, 0xc8, 0x92, 0x3e, 0xba, 0xc8, 0x2b, 0x3e,
  0x68, 0x6a, 0xa1, 0xc0, 0xf8, 0x10, 0x5a, 0x3d, 0x09, 0x6b, 0xc8, 0x3d,
  0xac, 0x4a, 0xbd, 0xbf, 0xeb, 0x25, 0x89, 0x3d, 0xab, 0xf8, 0x2d, 0xbe,
  0x58, 0x6c, 0x10, 0xbd, 0x51, 0xa6, 0x45, 0x3e, 0xde, 0x45, 0x03, 0xbe,
  0x02, 0x66, 0x24, 0x40, 0xba, 0xf4, 0xd4, 0xbd, 0x83, 0x66, 0xc2, 0xbe,
  0x63, 0xcb, 0x97, 0xbe, 0xdf, 0x94, 0x71, 0xbe, 0xea, 0x43, 0x87, 0xbd,
  0xcf, 0xa7, 0x6f, 0x3e, 0x27, 0x1b, 0x82, 0xbe, 0xe3, 0x4c, 0x27, 0x3e,
  0xb4, 0x3b, 0x98, 0xbe, 0xdf, 0xec, 0xf0, 0xbd, 0xfa, 0x8b, 0xa6, 0x3d,
  0x5f, 0xc4, 0xe1, 0xbd, 0x2f, 0x46, 0x83, 0xbe, 0x9d, 0x98, 0x7d, 0xbe,
  0x97, 0xf3, 0x83, 0xbc, 0xcc, 0x81, 0xe6, 0xbe, 0xe7, 0x8a, 0x1e, 0xbe,
  0x64, 0x2a, 0x84, 0xbe, 0xbd, 0x18, 0xd5, 0xbe, 0x9c, 0x6a, 0xc0, 0xbe,
  0xe8, 0xb1, 0xe0, 0x3d, 0xd1, 0x10, 0xa3, 0x3d, 0x61, 0x5d, 0xe5, 0xbd,
  0xb0, 0x67, 0xd4, 0xbe, 0xce, 0x4f, 0x20, 0xbe, 0x98, 0xc4, 0x4f, 0xbe,
  0x48, 0x61, 0x7f, 0x3d, 0xad, 0xc9, 0xc4, 0xbe, 0xe0, 0x71, 0xbc, 0xbd,
  0x66, 0x78, 0x93, 0xbd, 0x40, 0xec, 0x3c, 0x3e, 0xe9, 0xc6, 0xb6, 0xbe,
  0xa5, 0xb3, 0x96, 0xbe, 0xcf, 0x4c, 0xba, 0xbe, 0xf2, 0x34, 0xd1, 0x3e,
  0x4f, 0xda, 0xe0, 0xbd, 0x61, 0xfe, 0x8f, 0x3e, 0xbd, 0xb2, 0x6a, 0x3e,
  0x43, 0x30, 0xa0, 0x3f, 0x64, 0xa2, 0xca, 0x3e, 0xb0, 0xda, 0x10, 0x3e,
  0xd5, 0x36, 0x8f, 0x3e, 0x8c, 0x01, 0xc5, 0x3e, 0x8d, 0x46, 0x3e, 0xbe,
  0x2a, 0x8e, 0x97, 0xbe, 0xa1, 0x98, 0xe7, 0x3e, 0xf8, 0xa4, 0x23, 0xbe,
  0xdf, 0xc9, 0x10, 0xbf, 0x4b, 0x5f, 0x04, 0xbf, 0xf3, 0xa5, 0x01, 0x3f,
  0x09, 0x9a, 0x9d, 0x3e, 0xb0, 0x5c, 0x39, 0x3f, 0x62, 0x19, 0xb2, 0x3e,
  0x20, 0x98, 0xa7, 0xbc, 0xbf, 0x49, 0x78, 0xbe, 0x6a, 0xa1, 0x8f, 0x3f,
  0x8e, 0x4a, 0x6c, 0x3e, 0xe6, 0x44, 0xd2, 0xbb, 0xe3, 0x6e, 0x67, 0xbd,
  0x08, 0x7e, 0x2c, 0x3e, 0x7d, 0x0a, 0xeb, 0xbe, 0x65, 0xde, 0x5a, 0x3c,
  0xf5, 0xfe, 0xab, 0x3e, 0x4a, 0x47, 0x08, 0xbf, 0xa1, 0x80, 0x8b, 0xbe,
  0xf7, 0x08, 0x0d, 0x3e, 0x3b, 0x00, 0xc9, 0x3d, 0x8b, 0xb3, 0x97, 0xbe,
  0xf4, 0x9c, 0xba, 0x3f, 0x75, 0x2a, 0x75, 0xbe, 0xab, 0xd0, 0xa0, 0xbe,
  0x11, 0xc4, 0x1d, 0x3e, 0xd7, 0xa7, 0x54, 0x3d, 0x57, 0x86, 0xe2, 0x3d,
  0x76, 0x50, 0x13, 0x3e, 0xe6, 0xa4, 0x26, 0xbe, 0x95, 0x84, 0xc6, 0x3f,
  0xb2, 0x36, 0x2b, 0x3f, 0x51, 0xc6, 0x7a, 0xbf, 0x6d, 0xf7, 0x0b, 0xbf,
  0x51, 0xb6, 0xe5, 0x3e, 0x46, 0x27, 0xf8, 0xbd, 0x73, 0x70, 0x54, 0x3e,
  0xd1, 0x2b, 0x1c, 0x3f, 0x92, 0x4a, 0xb1, 0x3d, 0xba, 0x2a, 0x5d, 0x3e,
  0x47, 0x89, 0x14, 0x3f, 0xb0, 0xbe, 0x03, 0xbf, 0x2d, 0x04, 0xa5, 0x3d,
  0xc1, 0x19, 0x06, 0x40, 0x0b, 0xcd, 0x06, 0xbd, 0x61, 0x16, 0xd3, 0xbe,
  0xde, 0x55, 0x1e, 0x3e, 0xc6, 0x83, 0x0c, 0x3f, 0x36, 0xcb, 0x80, 0xbe,
  0x5a, 0x22, 0xff, 0x3e, 0xfe, 0xf4, 0x5c, 0xbe, 0x1c, 0x1f, 0x49, 0xbd,
  0x5c, 0xfa, 0xde, 0x3d, 0x8b, 0x73, 0x89, 0xbe, 0x21, 0x03, 0x5f, 0xbf,
  0xc1, 0x43, 0x24, 0x3f, 0x76, 0x50, 0xd1, 0xbd, 0x8f, 0x92, 0x49, 0xbd,
  0x8d, 0x86, 0x72, 0xbf, 0x6d, 0x7b, 0xf2, 0x3d, 0x69, 0x9d, 0x6e, 0x3e,
  0x33, 0x47, 0x9b, 0x3e, 0xbd, 0xe0, 0xa6, 0xbf, 0xb7, 0xf2, 0xf9, 0x3e,
  0xb8, 0x99, 0x89, 0x3e, 0x35, 0x5b, 0x45, 0x3c, 0x1c, 0x79, 0xa1, 0xbf,
  0x5a, 0x54, 0x4f, 0x3e, 0x65, 0x95, 0x78, 0xbf, 0x01, 0x7d, 0x31, 0x3e,
  0xf0, 0x7a, 0x6c, 0x3e, 0xc3, 0x1f, 0x75, 0xbd, 0x42, 0x8f, 0xac, 0x3c,
  0x0e, 0x03, 0xbd, 0x3f, 0x75, 0x70, 0xf4, 0xbe, 0xb4, 0x7d, 0x80, 0x3f,
  0x5b, 0x18, 0x59, 0x3d, 0xc6, 0x7f, 0xc3, 0xbd, 0x40, 0xf8, 0xe7, 0xbd,
  0x6e, 0x95, 0x35, 0x3f, 0xf6, 0xe3, 0xa0, 0x3d, 0xbb, 0xeb, 0xb2, 0x3d,
  0x72, 0xfa, 0xff, 0xff, 0x10, 0x00, 0x00, 0x00, 0x06, 0x00, 0x00, 0x00,
  0x14, 0x00, 0x00, 0x00, 0x34, 0x00, 0x00, 0x00, 0x02, 0x00, 0x00, 0x00,
  0x10, 0x00, 0x00, 0x00, 0x20, 0x00, 0x00, 0x00, 0x1d, 0x00, 0x00, 0x00,
  0x73, 0x65, 0x71, 0x75, 0x65, 0x6e, 0x74, 0x69, 0x61, 0x6c, 0x5f, 0x31,
  0x33, 0x2f, 0x64, 0x65, 0x6e, 0x73, 0x65, 0x5f, 0x33, 0x34, 0x2f, 0x4d,
  0x61, 0x74, 0x4d, 0x75, 0x6c, 0x00, 0x00, 0x00, 0x04, 0xfa, 0xff, 0xff,
  0xe6, 0xfa, 0xff, 0xff, 0x04, 0x00, 0x00, 0x00, 0x80, 0x03, 0x00, 0x00,
  0xcd, 0xe2, 0x16, 0xc0, 0xc1, 0xbb, 0xd2, 0x3f, 0xe4, 0x99, 0xbd, 0x40,
  0x0b, 0x5c, 0x4b, 0x3e, 0x2d, 0xc0, 0xde, 0xbd, 0x92, 0x0c, 0xf9, 0x3d,
  0x85, 0x76, 0xd9, 0xbe, 0x2d, 0xe4, 0xe3, 0x3f, 0x2d, 0xfa, 0x89, 0xbf,
  0xf4, 0xc3, 0x66, 0xbe, 0x2c, 0x7a, 0xa9, 0x3e, 0xf3, 0x2c, 0xe3, 0x3e,
  0xb0, 0x45, 0xcb, 0xbe, 0x81, 0xe8, 0x92, 0xbb, 0x36, 0x91, 0xc2, 0xbf,
  0xbc, 0x29, 0xaa, 0xbe, 0xa5, 0x57, 0xc6, 0x3e, 0xc9, 0xe1, 0x6d, 0xbe,
  0x86, 0x3f, 0xe2, 0xbe, 0xa0, 0xb8, 0x1c, 0xbf, 0x05, 0x14, 0xc2, 0xba,
  0xed, 0x46, 0x98, 0x3f, 0xad, 0x16, 0xae, 0xbf, 0x92, 0xda, 0x2f, 0xbe,
  0xdd, 0x21, 0x4c, 0x3e, 0xa8, 0x00, 0x21, 0x3e, 0x82, 0xfe, 0xb8, 0x3c,
  0x6b, 0x5d, 0x86, 0xbc, 0x0f, 0x2b, 0x55, 0xc0, 0xcc, 0xa6, 0x09, 0x40,
  0x8a, 0x3f, 0x79, 0xc0, 0x02, 0x6e, 0xf6, 0xba, 0x52, 0xbd, 0x0d, 0xbc,
  0x5b, 0x00, 0xa9, 0x3c, 0x9b, 0x8c, 0x5b, 0xbd, 0x52, 0x64, 0xac, 0x3f,
  0x72, 0xac, 0xba, 0xbe, 0xb3, 0xde, 0x28, 0x41, 0x2a, 0xb4, 0x56, 0x3d,
  0xf9, 0x55, 0x20, 0xbe, 0x9a, 0xdf, 0x33, 0x3e, 0x03, 0x9d, 0x74, 0x3a,
  0xb7, 0x5e, 0xce, 0x3f, 0x04, 0xaa, 0xac, 0x3f, 0x7f, 0xd2, 0x22, 0x41,
  0x75, 0x03, 0x2a, 0xbc, 0x0c, 0xba, 0x35, 0x3e, 0xe1, 0x83, 0xf6, 0x3d,
  0x4e, 0x6a, 0xb7, 0xbb, 0xe2, 0x55, 0x76, 0x3c, 0xf2, 0xbb, 0x3f, 0x40,
  0x99, 0x60, 0x46, 0x40, 0xcd, 0x73, 0x1b, 0x3c, 0x2e, 0x6f, 0xc6, 0x3d,
  0xde, 0x0f, 0x96, 0xbe, 0xf8, 0x8e, 0xb0, 0xbe, 0x8d, 0xb2, 0xa4, 0xbf,
  0x7e, 0xbf, 0x8b, 0x40, 0x35, 0xd8, 0xd5, 0xc0, 0xd0, 0x86, 0xe4, 0x39,
  0xf9, 0xad, 0x5f, 0xbd, 0x2c, 0xa4, 0x39, 0xbc, 0x44, 0x3c, 0x24, 0xbb,
  0x57, 0x19, 0x43, 0x40, 0x85, 0x49, 0xbf, 0xbe, 0xe5, 0xf4, 0xae, 0x40,
  0x9b, 0x36, 0x6b, 0x3c, 0x6a, 0x3a, 0x46, 0xbd, 0xf0, 0x0a, 0x4d, 0xbc,
  0x82, 0x8b, 0x84, 0xbb, 0x2f, 0x35, 0xe6, 0x3f, 0x26, 0xc1, 0xaa, 0x3f,
  0xa6, 0xb6, 0x99, 0xbf, 0xc9, 0x86, 0x63, 0xbe, 0x9d, 0xa9, 0x33, 0x3f,
  0xdb, 0x41, 0xca, 0x3e, 0x2b, 0xd6, 0x98, 0x3b, 0xe3, 0x3c, 0x16, 0x3f,
  0xc1, 0x7d, 0xe8, 0x3f, 0xcd, 0x84, 0xab, 0x40, 0xba, 0x66, 0x93, 0xbd,
  0x13, 0x1a, 0x1e, 0x3d, 0xa9, 0x89, 0x07, 0xbe, 0x8a, 0x3a, 0x03, 0x3e,
  0x1a, 0x7d, 0x0c, 0xbf, 0x0a, 0x7c, 0x94, 0xc0, 0xae, 0x22, 0x10, 0x41,
  0x89, 0x56, 0x27, 0xbc, 0x1c, 0xa8, 0x06, 0xbd, 0xdf, 0x91, 0x23, 0x3d,
  0x28, 0xc6, 0xe6, 0xbb, 0xb1, 0xfc, 0xa5, 0x40, 0x15, 0xed, 0xf2, 0xbe,
  0x47, 0xb2, 0x9e, 0xbf, 0x08, 0x0f, 0x94, 0x3c, 0x8f, 0x43, 0x2c, 0xbe,
  0x72, 0x64, 0xb1, 0xbc, 0xe9, 0xd8, 0xd7, 0xba, 0x9c, 0x4f, 0x15, 0xc0,
  0x95, 0xf5, 0xd8, 0x40, 0x72, 0x6a, 0x9d, 0x40, 0xb3, 0x15, 0x3a, 0x3c,
  0x55, 0x4e, 0x6b, 0xbc, 0x73, 0xac, 0xa1, 0xbc, 0xbd, 0x30, 0xbf, 0xbb,
  0xd7, 0x10, 0x5f, 0xbe, 0xfd, 0xd0, 0xb2, 0x40, 0xbd, 0x5f, 0x6f, 0x40,
  0xaf, 0x3d, 0x91, 0xbe, 0xd2, 0xd1, 0xf6, 0xbd, 0x8f, 0x9c, 0xde, 0x3d,
  0x87, 0x4f, 0x21, 0xbc, 0xa8, 0xcc, 0xdb, 0x3c, 0x29, 0x38, 0xb6, 0x40,
  0x20, 0x4a, 0x80, 0xc0, 0x74, 0xfd, 0xb8, 0x3b, 0x0d, 0x05, 0xb4, 0xbc,
  0xb7, 0xc2, 0xbb, 0x3c, 0xc3, 0xb4, 0xcc, 0x3b, 0x68, 0x3a, 0xe5, 0xbe,
  0xb4, 0x30, 0x6a, 0xc0, 0x1d, 0x60, 0x52, 0xc0, 0x95, 0x13, 0x36, 0x3e,
  0x4b, 0xb7, 0x54, 0xbd, 0x71, 0x13, 0x1e, 0x3c, 0x1d, 0xf3, 0xe3, 0xbb,
  0x45, 0xcb, 0x60, 0x3f, 0xd4, 0xba, 0x90, 0xc0, 0x4a, 0x5d, 0x01, 0xc1,
  0xb0, 0x9c, 0x0a, 0xbd, 0x01, 0xba, 0xf9, 0x3d, 0x80, 0xf0, 0xc5, 0xbd,
  0x8b, 0x6c, 0x24, 0x3d, 0xfe, 0x38, 0x6b, 0x40, 0x8e, 0xa2, 0xb4, 0xc0,
  0x77, 0x7f, 0x08, 0xbe, 0xe0, 0x6f, 0x14, 0xbd, 0x3b, 0x4d, 0xa0, 0x3c,
  0xbb, 0x64, 0x23, 0x3c, 0x55, 0xca, 0x6d, 0x3c, 0x57, 0xe9, 0xb9, 0x3f,
  0xec, 0x87, 0x85, 0xc0, 0x8b, 0xd6, 0xef, 0xbf, 0x19, 0x0d, 0x13, 0xbc,
  0xba, 0x94, 0x81, 0xbd, 0x99, 0xc6, 0xff, 0x3d, 0x6d, 0x44, 0x34, 0xbc,
  0x3c, 0x32, 0x94, 0xbd, 0xc1, 0xa2, 0x95, 0x3e, 0xed, 0x3c, 0x67, 0xbd,
  0x7b, 0x49, 0x36, 0xbe, 0x41, 0xdf, 0x06, 0x3d, 0x4d, 0xc3, 0x40, 0x3f,
  0xce, 0x02, 0x61, 0xbb, 0x1a, 0x7b, 0x41, 0x3f, 0x40, 0xee, 0xd1, 0x40,
  0xc0, 0x3c, 0x62, 0x40, 0x59, 0x63, 0x01, 0x3b, 0xff, 0x4e, 0x08, 0x3d,
  0xc2, 0x81, 0xc2, 0xbc, 0xf0, 0xab, 0xa9, 0xbc, 0x3b, 0x85, 0x03, 0x40,
  0x59, 0xa6, 0x8f, 0x3f, 0xb9, 0x77, 0xaf, 0xc0, 0xef, 0x44, 0xfe, 0x3b,
  0xce, 0xc7, 0x32, 0x3d, 0xf3, 0xd3, 0xca, 0xbb, 0x86, 0xe8, 0x66, 0xbd,
  0x74, 0x91, 0xa3, 0xbe, 0x80, 0x0d, 0xfd, 0xbf, 0x98, 0xa9, 0x56, 0xc0,
  0x7e, 0x5f, 0x3f, 0x3c, 0x50, 0x33, 0xe4, 0xbe, 0x59, 0x6b, 0x50, 0x3e,
  0x8d, 0x7e, 0x01, 0xbc, 0x95, 0x50, 0x33, 0x40, 0xa7, 0xfb, 0xe1, 0xbe,
  0xe2, 0x60, 0xcc, 0xbf, 0x4e, 0x91, 0x1e, 0x3b, 0xf2, 0x8a, 0xda, 0xbb,
  0x26, 0x42, 0xba, 0xba, 0x7f, 0x22, 0xe2, 0xbe, 0x92, 0xec, 0x38, 0xc0,
  0x6a, 0xa2, 0xf9, 0xbe, 0x5e, 0x5b, 0xea, 0x3f, 0x2f, 0x5b, 0x87, 0xbc,
  0xfe, 0xfb, 0x05, 0xbc, 0x1c, 0xed, 0x2e, 0x3c, 0xae, 0xbe, 0xfc, 0x3d,
  0xc0, 0x43, 0xd9, 0xbe, 0x37, 0x21, 0x91, 0xbe, 0x22, 0xc5, 0x05, 0x3f,
  0x99, 0xbf, 0x84, 0x3e, 0xde, 0x00, 0xc1, 0xbe, 0x26, 0x3f, 0xcd, 0x3e,
  0xf4, 0x4e, 0xa9, 0xbc, 0x2e, 0xe6, 0xd0, 0xbe, 0xbf, 0xb7, 0x95, 0x40,
  0x40, 0x52, 0x96, 0xc0, 0x7f, 0x9f, 0xd8, 0x3c, 0xd5, 0x72, 0x16, 0x3d,
  0x57, 0x1e, 0xba, 0xbb, 0xc3, 0xdb, 0x9c, 0xbb, 0x08, 0x27, 0x12, 0xc0,
  0xe3, 0xf5, 0xa3, 0xbf, 0x2d, 0xbe, 0x54, 0x3f, 0xd3, 0x49, 0xf4, 0xbc,
  0x77, 0x35, 0xcb, 0xbe, 0x20, 0xc5, 0x47, 0x3e, 0x54, 0x38, 0xd8, 0xbd,
  0x46, 0x4e, 0x91, 0x3f, 0x2a, 0x16, 0x10, 0xbf, 0x2b, 0xb6, 0x0e, 0x40,
  0x87, 0x33, 0x8f, 0xbb, 0xd6, 0xbf, 0xcc, 0x3e, 0xaa, 0x2b, 0x3a, 0xbf,
  0xeb, 0xd5, 0x00, 0x3b, 0x5c, 0x42, 0x0d, 0xc1, 0xe4, 0xab, 0xe4, 0xbf,
  0x0c, 0x6d, 0x8d, 0xbf, 0x8a, 0x2e, 0x51, 0x3c, 0x06, 0x68, 0x85, 0x3d,
  0xd0, 0x7f, 0x31, 0xbd, 0xa5, 0x97, 0x49, 0xbb, 0x46, 0xfe, 0xff, 0xff,
  0x10, 0x00, 0x00, 0x00, 0x05, 0x00, 0x00, 0x00, 0x14, 0x00, 0x00, 0x00,
  0x34, 0x00, 0x00, 0x00, 0x02, 0x00, 0x00, 0x00, 0x20, 0x00, 0x00, 0x00,
  0x07, 0x00, 0x00, 0x00, 0x1d, 0x00, 0x00, 0x00, 0x73, 0x65, 0x71, 0x75,
  0x65, 0x6e, 0x74, 0x69, 0x61, 0x6c, 0x5f, 0x31, 0x33, 0x2f, 0x64, 0x65,
  0x6e, 0x73, 0x65, 0x5f, 0x33, 0x33, 0x2f, 0x4d, 0x61, 0x74, 0x4d, 0x75,
  0x6c, 0x00, 0x00, 0x00, 0xd8, 0xfd, 0xff, 0xff, 0xba, 0xfe, 0xff, 0xff,
  0x04, 0x00, 0x00, 0x00, 0x80, 0x00, 0x00, 0x00, 0x2a, 0x38, 0xe8, 0xbc,
  0x12, 0x96, 0xe5, 0x3f, 0x1a, 0x17, 0xde, 0xbf, 0x9c, 0x5b, 0x80, 0x3d,
  0xcd, 0xba, 0x40, 0x40, 0xbe, 0x21, 0x9b, 0xbc, 0x71, 0x2e, 0x27, 0xbf,
  0xe6, 0xfa, 0x31, 0x3e, 0xbd, 0xb1, 0x63, 0xbf, 0xc2, 0x96, 0x06, 0x3f,
  0x68, 0x08, 0x0d, 0x40, 0x2e, 0xd6, 0x1b, 0xbd, 0x57, 0x0a, 0x46, 0x3d,
  0xe1, 0x18, 0x83, 0x3f, 0xa9, 0x0e, 0xae, 0x3e, 0xc2, 0x53, 0xeb, 0x3e,
  0x77, 0xd9, 0x32, 0xbe, 0x16, 0x71, 0xea, 0x3e, 0x83, 0xee, 0x73, 0x3d,
  0x19, 0x87, 0x65, 0x3f, 0x96, 0x17, 0x3f, 0x3f, 0x4d, 0x93, 0x23, 0x3f,
  0x4a, 0xe2, 0xe1, 0x3d, 0x4d, 0x34, 0x22, 0x3f, 0xb4, 0xf0, 0x4c, 0xbf,
  0x98, 0x3d, 0x89, 0x40, 0x08, 0xc2, 0x44, 0x3f, 0xd0, 0xfc, 0x48, 0xbf,
  0x90, 0xad, 0x9b, 0x3f, 0xe1, 0xca, 0x5b, 0xbf, 0x3f, 0x01, 0x93, 0x3e,
  0xae, 0x52, 0xc3, 0x3f, 0x1a, 0xff, 0xff, 0xff, 0x10, 0x00, 0x00, 0x00,
  0x04, 0x00, 0x00, 0x00, 0x10, 0x00, 0x00, 0x00, 0x20, 0x00, 0x00, 0x00,
  0x01, 0x00, 0x00, 0x00, 0x20, 0x00, 0x00, 0x00, 0x0d, 0x00, 0x00, 0x00,
  0x64, 0x65, 0x6e, 0x73, 0x65, 0x5f, 0x33, 0x33, 0x2f, 0x62, 0x69, 0x61,
  0x73, 0x00, 0x00, 0x00, 0x98, 0xfe, 0xff, 0xff, 0x7a, 0xff, 0xff, 0xff,
  0x04, 0x00, 0x00, 0x00, 0x40, 0x00, 0x00, 0x00, 0x84, 0x7c, 0x17, 0x3f,
  0x0a, 0x7c, 0x83, 0x3c, 0x7d, 0x09, 0xc1, 0x3f, 0x7d, 0x60, 0x8d, 0xbe,
  0xe0, 0xed, 0x11, 0x3f, 0x8f, 0xad, 0x8c, 0x3f, 0xcc, 0x30, 0xa7, 0x3f,
  0x11, 0x30, 0xa8, 0x3c, 0xa4, 0x8a, 0x8b, 0xbe, 0x07, 0xaa, 0x70, 0x3f,
  0x30, 0xda, 0x34, 0xbe, 0x42, 0x74, 0x99, 0xc0, 0xa0, 0xf6, 0x2a, 0xbe,
  0xfc, 0x93, 0xd4, 0x3d, 0xd2, 0x7f, 0x10, 0xbc, 0x7c, 0x40, 0xfd, 0x3e,
  0x9a, 0xff, 0xff, 0xff, 0x10, 0x00, 0x00, 0x00, 0x03, 0x00, 0x00, 0x00,
  0x10, 0x00, 0x00, 0x00, 0x24, 0x00, 0x00, 0x00, 0x01, 0x00, 0x00, 0x00,
  0x10, 0x00, 0x00, 0x00, 0x0d, 0x00, 0x00, 0x00, 0x64, 0x65, 0x6e, 0x73,
  0x65, 0x5f, 0x33, 0x34, 0x2f, 0x62, 0x69, 0x61, 0x73, 0x00, 0x00, 0x00,
  0x04, 0x00, 0x06, 0x00, 0x04, 0x00, 0x00, 0x00, 0x00, 0x00, 0x06, 0x00,
  0x08, 0x00, 0x04, 0x00, 0x06, 0x00, 0x00, 0x00, 0x04, 0x00, 0x00, 0x00,
  0x18, 0x00, 0x00, 0x00, 0x5e, 0x5a, 0xf8, 0xbe, 0x8e, 0xfa, 0x5c, 0x3f,
  0xfc, 0x5b, 0xf4, 0xbd, 0xfe, 0x83, 0xc2, 0x3f, 0xae, 0xcc, 0xb5, 0xbf,
  0x07, 0xc9, 0xbb, 0x3f, 0x00, 0x00, 0x0e, 0x00, 0x14, 0x00, 0x04, 0x00,
  0x00, 0x00, 0x08, 0x00, 0x0c, 0x00, 0x10, 0x00, 0x0e, 0x00, 0x00, 0x00,
  0x10, 0x00, 0x00, 0x00, 0x02, 0x00, 0x00, 0x00, 0x10, 0x00, 0x00, 0x00,
  0x20, 0x00, 0x00, 0x00, 0x01, 0x00, 0x00, 0x00, 0x06, 0x00, 0x00, 0x00,
  0x0d, 0x00, 0x00, 0x00, 0x64, 0x65, 0x6e, 0x73, 0x65, 0x5f, 0x33, 0x35,
  0x2f, 0x62, 0x69, 0x61, 0x73, 0x00, 0x00, 0x00, 0x8c, 0xff, 0xff, 0xff,
  0x14, 0x00, 0x18, 0x00, 0x04, 0x00, 0x00, 0x00, 0x08, 0x00, 0x0c, 0x00,
  0x10, 0x00, 0x00, 0x00, 0x00, 0x00, 0x14, 0x00, 0x14, 0x00, 0x00, 0x00,
  0x14, 0x00, 0x00, 0x00, 0x01, 0x00, 0x00, 0x00, 0x18, 0x00, 0x00, 0x00,
  0x48, 0x00, 0x00, 0x00, 0x38, 0x00, 0x00, 0x00, 0x02, 0x00, 0x00, 0x00,
  0x01, 0x00, 0x00, 0x00, 0x07, 0x00, 0x00, 0x00, 0x20, 0x00, 0x00, 0x00,
  0x73, 0x65, 0x72, 0x76, 0x69, 0x6e, 0x67, 0x5f, 0x64, 0x65, 0x66, 0x61,
  0x75, 0x6c, 0x74, 0x5f, 0x64, 0x65, 0x6e, 0x73, 0x65, 0x5f, 0x33, 0x33,
  0x5f, 0x69, 0x6e, 0x70, 0x75, 0x74, 0x3a, 0x30, 0x00, 0x00, 0x00, 0x00,
  0x02, 0x00, 0x00, 0x00, 0xff, 0xff, 0xff, 0xff, 0x07, 0x00, 0x00, 0x00,
  0xfc, 0xff, 0xff, 0xff, 0x04, 0x00, 0x04, 0x00, 0x04, 0x00, 0x00, 0x00
};
unsigned int tfliteModel_len = 5244;
