#include "model.h"

alignas(8) const unsigned char tfliteModel[] = {
  0x1c, 0x00, 0x00, 0x00, 0x54, 0x46, 0x4c, 0x33, 0x14, 0x00, 0x20, 0x00,
  0x04, 0x00, 0x08, 0x00, 0x0c, 0x00, 0x10, 0x00, 0x14, 0x00, 0x00, 0x00,
  0x18, 0x00, 0x1c, 0x00, 0x14, 0x00, 0x00, 0x00, 0x03, 0x00, 0x00, 0x00,
  0x18, 0x00, 0x00, 0x00, 0x1c, 0x00, 0x00, 0x00, 0x3c, 0x01, 0x00, 0x00,
  0x1c, 0x00, 0x00, 0x00, 0xe4, 0x00, 0x00, 0x00, 0x48, 0x00, 0x00, 0x00,
  0x01, 0x00, 0x00, 0x00, 0x6c, 0x03, 0x00, 0x00, 0x01, 0x00, 0x00, 0x00,
  0x44, 0x01, 0x00, 0x00, 0x0c, 0x00, 0x00, 0x00, 0x14, 0x14, 0x00, 0x00,
  0x10, 0x14, 0x00, 0x00, 0xcc, 0x12, 0x00, 0x00, 0x64, 0x12, 0x00, 0x00,
  0xe0, 0x11, 0x00, 0x00, 0x0c, 0x0e, 0x00, 0x00, 0xb4, 0x05, 0x00, 0x00,
  0xdc, 0x03, 0x00, 0x00, 0xf4, 0x13, 0x00, 0x00, 0xf0, 0x13, 0x00, 0x00,
  0xec, 0x13, 0x00, 0x00, 0xd0, 0x00, 0x00, 0x00, 0x01, 0x00, 0x00, 0x00,
  0x10, 0x00, 0x00, 0x00, 0x0c, 0x00, 0x14, 0x00, 0x10, 0x00, 0x0c, 0x00,
  0x08, 0x00, 0x04, 0x00, 0x0c, 0x00, 0x00, 0x00, 0x10, 0x00, 0x00, 0x00,
  0x18, 0x00, 0x00, 0x00, 0x28, 0x00, 0x00, 0x00, 0x2c, 0x00, 0x00, 0x00,
  0x05, 0x00, 0x00, 0x00, 0x73, 0x65, 0x72, 0x76, 0x65, 0x00, 0x00, 0x00,
  0x0f, 0x00, 0x00, 0x00, 0x73, 0x65, 0x72, 0x76, 0x69, 0x6e, 0x67, 0x5f,
  0x64, 0x65, 0x66, 0x61, 0x75, 0x6c, 0x74, 0x00, 0x01, 0x00, 0x00, 0x00,
  0x14, 0x00, 0x00, 0x00, 0x01, 0x00, 0x00, 0x00, 0x28, 0x00, 0x00, 0x00,
  0x08, 0x00, 0x0c, 0x00, 0x08, 0x00, 0x04, 0x00, 0x08, 0x00, 0x00, 0x00,
  0x09, 0x00, 0x00, 0x00, 0x04, 0x00, 0x00, 0x00, 0x08, 0x00, 0x00, 0x00,
  0x64, 0x65, 0x6e, 0x73, 0x65, 0x5f, 0x31, 0x31, 0x00, 0x00, 0x00, 0x00,
  0xde, 0xed, 0xff, 0xff, 0x04, 0x00, 0x00, 0x00, 0x0d, 0x00, 0x00, 0x00,
  0x64, 0x65, 0x6e, 0x73, 0x65, 0x5f, 0x39, 0x5f, 0x69, 0x6e, 0x70, 0x75,
  0x74, 0x00, 0x00, 0x00, 0x01, 0x00, 0x00, 0x00, 0x0c, 0x00, 0x00, 0x00,
  0x08, 0x00, 0x0c, 0x00, 0x04, 0x00, 0x08, 0x00, 0x08, 0x00, 0x00, 0x00,
  0x08, 0x00, 0x00, 0x00, 0x0b, 0x00, 0x00, 0x00, 0x13, 0x00, 0x00, 0x00,
  0x6d, 0x69, 0x6e, 0x5f, 0x72, 0x75, 0x6e, 0x74, 0x69, 0x6d, 0x65, 0x5f,
  0x76, 0x65, 0x72, 0x73, 0x69, 0x6f, 0x6e, 0x00, 0x2e, 0xee, 0xff, 0xff,
  0x04, 0x00, 0x00, 0x00, 0x10, 0x00, 0x00, 0x00, 0x31, 0x2e, 0x35, 0x2e,
  0x30, 0x00, 0x00, 0x00, 0x00, 0x00, 0x00, 0x00, 0x00, 0x00, 0x00, 0x00,
  0x0f, 0x00, 0x00, 0x00, 0x4d, 0x4c, 0x49, 0x52, 0x20, 0x43, 0x6f, 0x6e,
  0x76, 0x65, 0x72, 0x74, 0x65, 0x64, 0x2e, 0x00, 0x00, 0x00, 0x0e, 0x00,
  0x18, 0x00, 0x04, 0x00, 0x08, 0x00, 0x0c, 0x00, 0x10, 0x00, 0x14, 0x00,
  0x0e, 0x00, 0x00, 0x00, 0x14, 0x00, 0x00, 0x00, 0x3c, 0x00, 0x00, 0x00,
  0x40, 0x00, 0x00, 0x00, 0x44, 0x00, 0x00, 0x00, 0x50, 0x00, 0x00, 0x00,
  0x0a, 0x00, 0x00, 0x00, 0x60, 0x12, 0x00, 0x00, 0x14, 0x12, 0x00, 0x00,
  0x34, 0x11, 0x00, 0x00, 0xd8, 0x10, 0x00, 0x00, 0x44, 0x10, 0x00, 0x00,
  0x6c, 0x0c, 0x00, 0x00, 0x14, 0x04, 0x00, 0x00, 0xf8, 0x01, 0x00, 0x00,
  0xfc, 0x00, 0x00, 0x00, 0x60, 0x00, 0x00, 0x00, 0x01, 0x00, 0x00, 0x00,
  0x00, 0x00, 0x00, 0x00, 0x01, 0x00, 0x00, 0x00, 0x09, 0x00, 0x00, 0x00,
  0x03, 0x00, 0x00, 0x00, 0x80, 0x01, 0x00, 0x00, 0xa8, 0x00, 0x00, 0x00,
  0x10, 0x00, 0x00, 0x00, 0x04, 0x00, 0x00, 0x00, 0x6d, 0x61, 0x69, 0x6e,
  0x00, 0x00, 0x00, 0x00, 0x7a, 0xff, 0xff, 0xff, 0x00, 0x00, 0x00, 0x08,
  0x18, 0x00, 0x00, 0x00, 0x0c, 0x00, 0x00, 0x00, 0x04, 0x00, 0x00, 0x00,
  0xb0, 0xed, 0xff, 0xff, 0x01, 0x00, 0x00, 0x00, 0x09, 0x00, 0x00, 0x00,
  0x03, 0x00, 0x00, 0x00, 0x08, 0x00, 0x00, 0x00, 0x06, 0x00, 0x00, 0x00,
  0x02, 0x00, 0x00, 0x00, 0x38, 0xee, 0xff, 0xff, 0x14, 0x00, 0x00, 0x00,
  0x0a, 0x00, 0x00, 0x00, 0x24, 0x00, 0x00, 0x00, 0x40, 0x00, 0x00, 0x00,
  0x10, 0x00, 0x00, 0x00, 0x02, 0x00, 0x00, 0x00, 0x01, 0x00, 0x00, 0x00,
  0x06, 0x00, 0x00, 0x00, 0x02, 0x00, 0x00, 0x00, 0xff, 0xff, 0xff, 0xff,
  0x06, 0x00, 0x00, 0x00, 0x19, 0x00, 0x00, 0x00, 0x53, 0x74, 0x61, 0x74,
  0x65, 0x66, 0x75, 0x6c, 0x50, 0x61, 0x72, 0x74, 0x69, 0x74, 0x69, 0x6f,
  0x6e, 0x65, 0x64, 0x43, 0x61, 0x6c, 0x6c, 0x3a, 0x30, 0x00, 0x00, 0x00,
  0x68, 0xef, 0xff, 0xff, 0x00, 0x00, 0x0e, 0x00, 0x14, 0x00, 0x00, 0x00,
  0x08, 0x00, 0x0c, 0x00, 0x07, 0x00, 0x10, 0x00, 0x0e, 0x00, 0x00, 0x00,
  0x00, 0x00, 0x00, 0x08, 0x1c, 0x00, 0x00, 0x00, 0x10, 0x00, 0x00, 0x00,
  0x04, 0x00, 0x00, 0x00, 0x2a, 0xff, 0xff, 0xff, 0x00, 0x00, 0x00, 0x01,
  0x01, 0x00, 0x00, 0x00, 0x08, 0x00, 0x00, 0x00, 0x03, 0x00, 0x00, 0x00,
  0x07, 0x00, 0x00, 0x00, 0x05, 0x00, 0x00, 0x00, 0x03, 0x00, 0x00, 0x00,
  0xd0, 0xee, 0xff, 0xff, 0x14, 0x00, 0x00, 0x00, 0x09, 0x00, 0x00, 0x00,
  0x24, 0x00, 0x00, 0x00, 0x7c, 0x00, 0x00, 0x00, 0x10, 0x00, 0x00, 0x00,
  0x02, 0x00, 0x00, 0x00, 0x01, 0x00, 0x00, 0x00, 0x10, 0x00, 0x00, 0x00,
  0x02, 0x00, 0x00, 0x00, 0xff, 0xff, 0xff, 0xff, 0x10, 0x00, 0x00, 0x00,
  0x55, 0x00, 0x00, 0x00, 0x73, 0x65, 0x71, 0x75, 0x65, 0x6e, 0x74, 0x69,
  0x61, 0x6c, 0x5f, 0x34, 0x2f, 0x64, 0x65, 0x6e, 0x73, 0x65, 0x5f, 0x31,
  0x30, 0x2f, 0x4d, 0x61, 0x74, 0x4d, 0x75, 0x6c, 0x3b, 0x73, 0x65, 0x71,
  0x75, 0x65, 0x6e, 0x74, 0x69, 0x61, 0x6c, 0x5f, 0x34, 0x2f, 0x64, 0x65,
  0x6e, 0x73, 0x65, 0x5f, 0x31, 0x30, 0x2f, 0x52, 0x65, 0x6c, 0x75, 0x3b,
  0x73, 0x65, 0x71, 0x75, 0x65, 0x6e, 0x74, 0x69, 0x61, 0x6c, 0x5f, 0x34,
  0x2f, 0x64, 0x65, 0x6e, 0x73, 0x65, 0x5f, 0x31, 0x30, 0x2f, 0x42, 0x69,
  0x61, 0x73, 0x41, 0x64, 0x64, 0x00, 0x00, 0x00, 0x3c, 0xf0, 0xff, 0xff,
  0x00, 0x00, 0x0e, 0x00, 0x16, 0x00, 0x00, 0x00, 0x08, 0x00, 0x0c, 0x00,
  0x07, 0x00, 0x10, 0x00, 0x0e, 0x00, 0x00, 0x00, 0x00, 0x00, 0x00, 0x08,
  0x24, 0x00, 0x00, 0x00, 0x18, 0x00, 0x00, 0x00, 0x0c, 0x00, 0x00, 0x00,
  0x00, 0x00, 0x06, 0x00, 0x08, 0x00, 0x07, 0x00, 0x06, 0x00, 0x00, 0x00,
  0x00, 0x00, 0x00, 0x01, 0x01, 0x00, 0x00, 0x00, 0x07, 0x00, 0x00, 0x00,
  0x03, 0x00, 0x00, 0x00, 0x00, 0x00, 0x00, 0x00, 0x04, 0x00, 0x00, 0x00,
  0x01, 0x00, 0x00, 0x00, 0x0c, 0x00, 0x10, 0x00, 0x0b, 0x00, 0x00, 0x00,
  0x0c, 0x00, 0x04, 0x00, 0x0c, 0x00, 0x00, 0x00, 0x09, 0x00, 0x00, 0x00,
  0x00, 0x00, 0x00, 0x09, 0x01, 0x00, 0x00, 0x00, 0xc8, 0xef, 0xff, 0xff,
  0x14, 0x00, 0x00, 0x00, 0x08, 0x00, 0x00, 0x00, 0x24, 0x00, 0x00, 0x00,
  0x78, 0x00, 0x00, 0x00, 0x10, 0x00, 0x00, 0x00, 0x02, 0x00, 0x00, 0x00,
  0x01, 0x00, 0x00, 0x00, 0x20, 0x00, 0x00, 0x00, 0x02, 0x00, 0x00, 0x00,
  0xff, 0xff, 0xff, 0xff, 0x20, 0x00, 0x00, 0x00, 0x52, 0x00, 0x00, 0x00,
  0x73, 0x65, 0x71, 0x75, 0x65, 0x6e, 0x74, 0x69, 0x61, 0x6c, 0x5f, 0x34,
  0x2f, 0x64, 0x65, 0x6e, 0x73, 0x65, 0x5f, 0x39, 0x2f, 0x4d, 0x61, 0x74,
  0x4d, 0x75, 0x6c, 0x3b, 0x73, 0x65, 0x71, 0x75, 0x65, 0x6e, 0x74, 0x69,
  0x61, 0x6c, 0x5f, 0x34, 0x2f, 0x64, 0x65, 0x6e, 0x73, 0x65, 0x5f, 0x39,
  0x2f, 0x52, 0x65, 0x6c, 0x75, 0x3b, 0x73, 0x65, 0x71, 0x75, 0x65, 0x6e,
  0x74, 0x69, 0x61, 0x6c, 0x5f, 0x34, 0x2f, 0x64, 0x65, 0x6e, 0x73, 0x65,
  0x5f, 0x39, 0x2f, 0x42, 0x69, 0x61, 0x73, 0x41, 0x64, 0x64, 0x00, 0x00,
  0xe4, 0xef, 0xff, 0xff, 0x2a, 0xf1, 0xff, 0xff, 0x04, 0x00, 0x00, 0x00,
  0x80, 0x01, 0x00, 0x00, 0x5a, 0xa5, 0xbd, 0x3f, 0xb6, 0x0a, 0x3d, 0xbf,
  0x4b, 0x6e, 0x98, 0x3f, 0x83, 0x41, 0x73, 0x3f, 0xa4, 0x07, 0x29, 0x3f,
  0xf8, 0xc6, 0xee, 0xbe, 0x9e, 0xdd, 0x09, 0xbf, 0xcf, 0xa8, 0xe6, 0x3e,
  0x8c, 0xe6, 0x83, 0x3e, 0x01, 0xc6, 0x95, 0x3f, 0xa2, 0x14, 0x98, 0xbf,
  0xb0, 0x21, 0xe0, 0x3e, 0xff, 0xd1, 0xfe, 0xbe, 0xbf, 0x65, 0x7a, 0xbf,
  0x94, 0xee, 0x2f, 0xbe, 0x08, 0x58, 0xa4, 0x3e, 0x4d, 0x0b, 0x76, 0xbf,
  0x13, 0x33, 0xe2, 0x3e, 0x26, 0x4f, 0x19, 0xbd, 0xb0, 0xae, 0x83, 0x3f,
  0x0e, 0xd0, 0x46, 0xc1, 0xa5, 0x11, 0xc6, 0xbf, 0xea, 0x57, 0x04, 0xbf,
  0xeb, 0x20, 0x6b, 0x3f, 0x5f, 0x05, 0x7f, 0x3f, 0x09, 0x09, 0x40, 0xc0,
  0x15, 0xc7, 0x8d, 0x3f, 0xc0, 0x67, 0xbf, 0x3e, 0xac, 0x53, 0xde, 0x3f,
  0xc7, 0x27, 0xa0, 0xbf, 0x02, 0xfe, 0x93, 0xbe, 0xdc, 0x5a, 0x23, 0xbe,
  0x5e, 0xbc, 0x8d, 0x3c, 0x01, 0x8e, 0x03, 0x3d, 0x4b, 0x3c, 0xd0, 0x3e,
  0xa3, 0x4a, 0x3c, 0xbc, 0xb6, 0xc5, 0x0b, 0x3e, 0x9d, 0x50, 0x84, 0xbf,
  0x94, 0xa0, 0x18, 0x3f, 0x1b, 0xba, 0x53, 0xbf, 0x38, 0xf5, 0xa9, 0xbe,
  0x78, 0x1e, 0xe6, 0x3e, 0x98, 0x05, 0x25, 0x3e, 0xa2, 0x33, 0x78, 0x3e,
  0x3d, 0x43, 0x8d, 0x3c, 0x75, 0xa9, 0x1e, 0xbe, 0x94, 0xf2, 0x85, 0x3f,
  0x90, 0xb4, 0x6a, 0x3f, 0x96, 0xd4, 0x9a, 0x3f, 0x0f, 0x92, 0x0d, 0xc1,
  0x12, 0x6d, 0xab, 0xbf, 0xec, 0xc3, 0xf2, 0x3e, 0x5c, 0x54, 0xbe, 0x3e,
  0x84, 0x05, 0x72, 0x40, 0xec, 0xa4, 0x22, 0xc0, 0xc0, 0xef, 0x6b, 0x40,
  0x17, 0xd3, 0x96, 0xc0, 0xb3, 0x36, 0xaa, 0xc0, 0xca, 0xce, 0xc4, 0x3f,
  0x87, 0x53, 0x85, 0x3f, 0x1b, 0x06, 0x4d, 0xbe, 0x83, 0xd7, 0x02, 0x40,
  0xbf, 0xfa, 0xbd, 0xbe, 0x70, 0x4b, 0x85, 0xc0, 0x87, 0xfc, 0xb6, 0xbf,
  0xdf, 0x4e, 0x60, 0x3f, 0xbd, 0x83, 0x2d, 0x3e, 0x0c, 0xec, 0x56, 0xbe,
  0xe4, 0x59, 0xd1, 0x3e, 0xf5, 0x19, 0x34, 0xbf, 0xef, 0x14, 0x6c, 0xbf,
  0x3b, 0x3b, 0x9a, 0x3d, 0x80, 0xfb, 0x66, 0xbb, 0xe1, 0xf8, 0xce, 0x3f,
  0x39, 0xd5, 0xc5, 0x3e, 0x7d, 0x8b, 0xfa, 0x3e, 0xb8, 0xd0, 0x88, 0xbf,
  0x75, 0xab, 0x2c, 0x3f, 0x4a, 0x45, 0x43, 0x3e, 0x34, 0x5c, 0x0c, 0xbf,
  0x2a, 0x9d, 0xbb, 0xbf, 0x84, 0x89, 0xbe, 0x3f, 0x0d, 0xbb, 0x00, 0xc0,
  0x9e, 0x44, 0x17, 0xc1, 0x41, 0xf6, 0xb6, 0x3f, 0xe5, 0xef, 0x07, 0x40,
  0x97, 0xa3, 0xeb, 0x3f, 0xe4, 0xce, 0xf9, 0xbf, 0x98, 0x5e, 0x53, 0x3e,
  0xa7, 0x74, 0x58, 0x40, 0x8a, 0xe6, 0x77, 0xc0, 0x7c, 0xac, 0xa1, 0xc0,
  0x5c, 0x0b, 0x0e, 0x3f, 0x7a, 0x70, 0x5a, 0xbe, 0x29, 0x24, 0x97, 0xbf,
  0x77, 0x78, 0x2a, 0xbf, 0x22, 0xf2, 0xff, 0xff, 0x10, 0x00, 0x00, 0x00,
  0x07, 0x00, 0x00, 0x00, 0x14, 0x00, 0x00, 0x00, 0x34, 0x00, 0x00, 0x00,
  0x02, 0x00, 0x00, 0x00, 0x06, 0x00, 0x00, 0x00, 0x10, 0x00, 0x00, 0x00,
  0x1c, 0x00, 0x00, 0x00, 0x73, 0x65, 0x71, 0x75, 0x65, 0x6e, 0x74, 0x69,
  0x61, 0x6c, 0x5f, 0x34, 0x2f, 0x64, 0x65, 0x6e, 0x73, 0x65, 0x5f, 0x31,
  0x31, 0x2f, 0x4d, 0x61, 0x74, 0x4d, 0x75, 0x6c, 0x00, 0x00, 0x00, 0x00,
  0xb8, 0xf1, 0xff, 0xff, 0xfe, 0xf2, 0xff, 0xff, 0x04, 0x00, 0x00, 0x00,
  0x00, 0x08, 0x00, 0x00, 0xed, 0xc6, 0xaa, 0xbe, 0x0e, 0xd5, 0x48, 0x3e,
  0x01, 0xbf, 0x05, 0x3e, 0x6a, 0x17, 0xf2, 0xbe, 0x69, 0x1b, 0xc0, 0x3e,
  0x13, 0x5b, 0x5b, 0xbe, 0xb6, 0x44, 0x40, 0xbe, 0xd3, 0x30, 0x88, 0xbd,
  0x14, 0x6f, 0xab, 0xbf, 0xe8, 0x39, 0x83, 0xbf, 0xf8, 0xe0, 0xb2, 0x3e,
  0x1b, 0xfa, 0x35, 0xbf, 0x3d, 0x55, 0xb6, 0xbe, 0x7d, 0x40, 0x8d, 0x3f,
  0xe6, 0xf5, 0xa9, 0xbf, 0xed, 0x4f, 0x91, 0xbe, 0x00, 0xe4, 0x2f, 0xbf,
  0x79, 0x2f, 0x36, 0x3e, 0xb9, 0xc3, 0x99, 0x3e, 0xe2, 0x14, 0x4f, 0x3e,
  0x19, 0xa8, 0xb0, 0x3d, 0x9d, 0x23, 0xe4, 0xbe, 0x47, 0x68, 0x87, 0x3f,
  0xba, 0x67, 0xf1, 0xbe, 0xa3, 0x5f, 0xa1, 0x3e, 0x8f, 0xf3, 0xaa, 0x3f,
  0x35, 0x1b, 0x87, 0xbe, 0xb5, 0x44, 0x1f, 0xbe, 0x12, 0x8d, 0x8d, 0xbe,
  0xf7, 0x46, 0x78, 0xbe, 0xf8, 0x08, 0x67, 0xbe, 0xb5, 0xd3, 0x51, 0x3e,
  0xd8, 0x14, 0xf6, 0xbf, 0xf9, 0x8d, 0x01, 0xbf, 0xf7, 0xba, 0xe1, 0xbf,
  0x39, 0x05, 0xa2, 0xbd, 0x18, 0x47, 0x98, 0xbf, 0xa3, 0x79, 0x70, 0x3f,
  0xb3, 0xbd, 0x5f, 0xbf, 0xf7, 0xd1, 0x38, 0x3f, 0x73, 0xfb, 0xb0, 0xbc,
  0x9d, 0xbd, 0x20, 0x3f, 0xd4, 0x89, 0xaa, 0xbd, 0x1e, 0x80, 0x2e, 0xbe,
  0xd0, 0xed, 0x01, 0x3f, 0x23, 0x6c, 0x3c, 0x3f, 0x23, 0xa0, 0x0c, 0x3f,
  0x10, 0xbd, 0x08, 0x3f, 0xd9, 0xbe, 0xdf, 0x3d, 0x46, 0xc9, 0x37, 0x3f,
  0x25, 0x0e, 0x99, 0x3f, 0xab, 0x31, 0x24, 0x3f, 0x57, 0xf0, 0x89, 0x3e,
  0x16, 0x19, 0xf7, 0xbe, 0xb9, 0x2d, 0xc7, 0xbf, 0x5e, 0x4d, 0x53, 0x3f,
  0x35, 0x13, 0x86, 0x3e, 0x98, 0x71, 0xd0, 0xbe, 0x01, 0x3f, 0x73, 0x3d,
  0x0c, 0x6d, 0xb7, 0x3e, 0x86, 0x1a, 0x23, 0xbf, 0x35, 0x29, 0x26, 0x3f,
  0xdf, 0x83, 0xdf, 0xbe, 0x54, 0xcc, 0x0a, 0x3f, 0x67, 0x1f, 0x53, 0x3e,
  0x09, 0x06, 0x2a, 0x3f, 0x10, 0x8c, 0xec, 0x3d, 0xca, 0x35, 0x47, 0xbf,
  0x73, 0xc3, 0x45, 0xbf, 0x45, 0x5f, 0x43, 0x3e, 0x27, 0xc2, 0xd9, 0x3e,
  0x91, 0xcc, 0x99, 0x3e, 0x1d, 0x1e, 0x89, 0xbf, 0x61, 0x7a, 0x2b, 0x3f,
  0xef, 0x17, 0xc2, 0x3e, 0xa0, 0xcb, 0xfa, 0x3f, 0x3c, 0xb4, 0xb0, 0x3f,
  0x58, 0xa4, 0x3e, 0x3f, 0x55, 0xf7, 0x69, 0x3e, 0x8b, 0x22, 0x5d, 0xbf,
  0x0e, 0x3c, 0x88, 0xbf, 0x3f, 0x65, 0x0f, 0xbf, 0xa2, 0xe5, 0x9c, 0x3e,
  0xf6, 0x96, 0x2d, 0x3f, 0x3b, 0x4f, 0x0a, 0x3f, 0x63, 0x37, 0x2e, 0x3f,
  0x6a, 0x1d, 0x02, 0xbe, 0xd3, 0x47, 0x45, 0xbe, 0x81, 0x7f, 0xc8, 0xbd,
  0xb4, 0xf8, 0xe7, 0x3e, 0x11, 0x7c, 0x06, 0xbf, 0x4d, 0x0f, 0xed, 0x3e,
  0x6b, 0xe4, 0x0f, 0x3e, 0xde, 0xdd, 0xe4, 0xbe, 0xb1, 0x94, 0x95, 0xbf,
  0xb4, 0x62, 0xbc, 0x3e, 0xdc, 0x42, 0x3c, 0x3e, 0x45, 0xb7, 0x53, 0xbf,
  0x49, 0xa6, 0x9e, 0xbf, 0xc6, 0xd4, 0x0b, 0x3f, 0xc7, 0xa3, 0x7a, 0x3f,
  0xa2, 0xce, 0xe8, 0xbe, 0x7c, 0xaa, 0x9d, 0x3f, 0xae, 0xfb, 0xb0, 0xbf,
  0xe5, 0xe4, 0x0c, 0xbf, 0x04, 0xba, 0xa9, 0xbf, 0x44, 0x43, 0x2a, 0x3e,
  0xb3, 0x9d, 0x78, 0xbf, 0xe1, 0x50, 0xef, 0xbd, 0xd8, 0x1b, 0xf7, 0xbe,
  0x1a, 0xfc, 0xf6, 0xbe, 0x24, 0x69, 0xc7, 0x3b, 0x32, 0xd4, 0x40, 0xbf,
  0xd6, 0xb9, 0x4d, 0xbd, 0xf1, 0x83, 0x99, 0x3f, 0x0f, 0xfd, 0xfd, 0xbf,
  0x91, 0xf4, 0xb8, 0x3e, 0x8a, 0x24, 0x70, 0xbf, 0xd3, 0x35, 0x3e, 0x3e,
  0x69, 0x6a, 0x91, 0x3e, 0xbe, 0x7e, 0xd0, 0x3e, 0x9c, 0xc7, 0xc3, 0x3e,
  0x36, 0xf5, 0x9e, 0xbd, 0xa1, 0x8e, 0x91, 0xbe, 0xc6, 0x3a, 0x81, 0xbd,
  0xe6, 0x8e, 0x08, 0xbf, 0x2f, 0x74, 0xa3, 0x3e, 0xe4, 0x64, 0x5e, 0x3a,
  0x7f, 0xc3, 0x2e, 0x3e, 0x23, 0xac, 0xc2, 0x3e, 0x25, 0x7a, 0x7a, 0x3d,
  0x2b, 0x00, 0x11, 0xbe, 0xe1, 0xed, 0x96, 0x3e, 0xc3, 0xad, 0x73, 0x3f,
  0xbf, 0xd1, 0xab, 0xbf, 0xb0, 0x77, 0x55, 0xbc, 0x71, 0x3d, 0xc2, 0x3e,
  0x86, 0xc6, 0xc8, 0x3d, 0xf3, 0x3d, 0x01, 0x3f, 0xf7, 0x4c, 0xc6, 0xbf,
  0x5a, 0xfc, 0x8e, 0xbc, 0x91, 0x13, 0x03, 0xc0, 0x68, 0xbf, 0x93, 0xbe,
  0x58, 0xf5, 0xc3, 0xbf, 0x3b, 0x19, 0x68, 0xbf, 0xaa, 0xab, 0xf4, 0x3d,
  0x75, 0x44, 0xaa, 0xbd, 0x10, 0xc2, 0x85, 0xbe, 0x48, 0xec, 0xb2, 0xbb,
  0xf1, 0x79, 0x21, 0xbe, 0x1c, 0x5f, 0x7f, 0x3d, 0x4e, 0x81, 0x04, 0x3e,
  0x4a, 0x50, 0xcd, 0x3e, 0xea, 0x74, 0x06, 0x3f, 0x91, 0x6d, 0x65, 0xbd,
  0xcf, 0xe9, 0x8a, 0x3f, 0x92, 0x36, 0x0f, 0x3d, 0x34, 0x7f, 0x9e, 0xbd,
  0x88, 0x22, 0x09, 0xbe, 0x81, 0xa6, 0x2d, 0x3e, 0x1f, 0x44, 0x86, 0x3d,
  0xc2, 0xa2, 0x24, 0x3f, 0x4b, 0x88, 0x39, 0x3f, 0xc4, 0xb7, 0xd9, 0xbf,
  0xe5, 0x8f, 0x92, 0x3e, 0xcb, 0x8b, 0xaa, 0x3e, 0xb2, 0xda, 0xe3, 0x3f,
  0x6a, 0xec, 0x03, 0x3f, 0xca, 0x57, 0xa5, 0xbe, 0x01, 0x54, 0x0c, 0xc0,
  0x67, 0x01, 0xf3, 0x3e, 0xa7, 0xe2, 0xfa, 0x3f, 0x6a, 0x95, 0x8f, 0xbe,
  0x0d, 0xf8, 0xd2, 0xbf, 0x0d, 0x0c, 0x3c, 0xbf, 0x87, 0xaf, 0x0c, 0xbe,
  0xd7, 0x2f, 0x18, 0x40, 0xe8, 0x0d, 0xd7, 0x3e, 0xda, 0x61, 0x58, 0xbe,
  0x07, 0x72, 0x0b, 0x3f, 0xa5, 0x00, 0x40, 0xc0, 0x52, 0x40, 0xd7, 0xbf,
  0x9b, 0xfb, 0xad, 0xbf, 0xe8, 0x01, 0xaa, 0xbf, 0x0c, 0x99, 0x4a, 0xbe,
  0xb3, 0x0f, 0xb6, 0x3d, 0x9f, 0x77, 0x04, 0xc0, 0x6a, 0x32, 0x15, 0xbe,
  0x7d, 0x96, 0x80, 0x3f, 0xa0, 0x24, 0xee, 0xbf, 0x7e, 0x42, 0xb3, 0xbf,
  0xfd, 0xe2, 0xaa, 0x3c, 0x75, 0x18, 0x4b, 0xbf, 0xb4, 0xf6, 0xb8, 0x3e,
  0xdc, 0xf8, 0x02, 0xbf, 0xbb, 0x67, 0x6c, 0xbf, 0x5d, 0x2d, 0xf0, 0xbe,
  0x69, 0xc0, 0xcf, 0x3e, 0x98, 0x64, 0x65, 0xbe, 0x99, 0x54, 0x2c, 0xbf,
  0x4a, 0x5e, 0xe2, 0xbe, 0x6a, 0xc9, 0x12, 0xbe, 0xb9, 0x09, 0x9f, 0xbe,
  0xb7, 0xc3, 0x50, 0x3f, 0x14, 0xad, 0xd9, 0xbe, 0xc6, 0x78, 0x07, 0xc0,
  0xc7, 0x68, 0x64, 0x3f, 0x54, 0x6e, 0xf7, 0xbf, 0x34, 0x15, 0x33, 0x3c,
  0xd3, 0xc0, 0x0e, 0x3f, 0xc1, 0x58, 0xd1, 0x3d, 0x97, 0xf4, 0x90, 0x3e,
  0x4e, 0xc0, 0x68, 0x3e, 0x99, 0x0a, 0xbf, 0xbe, 0x30, 0x66, 0x21, 0x3f,
  0x74, 0xfa, 0x79, 0xbe, 0x37, 0x90, 0xde, 0x3e, 0xde, 0x25, 0xa7, 0x3e,
  0xea, 0x90, 0xaa, 0x3f, 0x43, 0x0e, 0x9e, 0x3d, 0xc9, 0xc9, 0x47, 0x3e,
  0x19, 0x89, 0x0c, 0x3c, 0x87, 0x29, 0x03, 0xc0, 0x6d, 0x80, 0x0d, 0x3f,
  0x59, 0x78, 0xa9, 0xbe, 0xd5, 0x6a, 0x1a, 0x3f, 0x8f, 0x45, 0x84, 0xbf,
  0xfa, 0x49, 0x06, 0xbf, 0x27, 0x97, 0xaa, 0x3f, 0xc5, 0x7e, 0x25, 0x3f,
  0x3b, 0x6f, 0x6d, 0xbe, 0x2e, 0x42, 0x74, 0xbe, 0xf8, 0x38, 0x61, 0x3e,
  0x3b, 0xa1, 0xa8, 0x3c, 0x88, 0xa3, 0xac, 0xbe, 0xf9, 0xac, 0xfb, 0xbe,
  0xb8, 0xb0, 0x20, 0x3f, 0x90, 0x12, 0x12, 0xba, 0x02, 0x73, 0x0a, 0x3f,
  0x93, 0xb6, 0x52, 0x3f, 0x86, 0x2e, 0x33, 0x3f, 0x88, 0x49, 0xf7, 0xbb,
  0x15, 0x12, 0x05, 0x3f, 0x70, 0x2c, 0xc4, 0xbd, 0x03, 0x91, 0x21, 0x3e,
  0xaa, 0x50, 0xfe, 0x3d, 0x7b, 0xf3, 0xcd, 0x3e, 0x13, 0xbe, 0x14, 0x3f,
  0xd7, 0x68, 0x8a, 0x3f, 0xf4, 0x55, 0xa4, 0xbf, 0xfa, 0xb0, 0x79, 0xbf,
  0x1e, 0x25, 0x19, 0xbf, 0xf9, 0xa4, 0x18, 0xbf, 0xbe, 0xe5, 0xa4, 0x3d,
  0x3f, 0x13, 0x54, 0xbf, 0x29, 0x02, 0x07, 0xbf, 0x4f, 0xc9, 0x63, 0x3f,
  0x7a, 0x59, 0x5f, 0xbe, 0x2a, 0x3b, 0xf6, 0x3e, 0xdb, 0x69, 0x63, 0xbe,
  0x48, 0xdb, 0x86, 0xbc, 0x80, 0x74, 0x43, 0x3f, 0x3b, 0x1f, 0xb5, 0xbf,
  0x17, 0xce, 0xfd, 0x3d, 0x87, 0xdd, 0x5a, 0x3f, 0xf2, 0xba, 0x04, 0x3f,
  0xb5, 0x05, 0xc1, 0xbb, 0x84, 0xe9, 0xf1, 0xbf, 0x44, 0x62, 0x29, 0xbf,
  0x76, 0xda, 0x0a, 0xbf, 0x45, 0x70, 0x67, 0xbd, 0xfb, 0x71, 0x52, 0xbe,
  0x94, 0x61, 0xb7, 0xbf, 0xf5, 0xa2, 0x2d, 0x3f, 0xd8, 0x59, 0x62, 0x3e,
  0x93, 0xcd, 0xc3, 0x3f, 0x8f, 0xb3, 0xdc, 0x3e, 0xb3, 0xdd, 0x37, 0x3e,
  0x79, 0x34, 0xc6, 0x3f, 0x9f, 0x9b, 0x1b, 0x3f, 0xb8, 0xa0, 0xad, 0x3d,
  0xcc, 0x99, 0xd4, 0xbe, 0xe1, 0x1d, 0x98, 0xbe, 0x57, 0x62, 0x1e, 0xbf,
  0xe4, 0x42, 0x78, 0x3e, 0x07, 0xce, 0x63, 0x3c, 0x88, 0x0b, 0x6c, 0x3f,
  0xb1, 0xc0, 0xd0, 0xbe, 0x69, 0xdf, 0x6f, 0x3f, 0x16, 0xd6, 0x37, 0xbe,
  0xeb, 0x3a, 0x2e, 0x3e, 0xa1, 0xa9, 0xd8, 0x3e, 0x23, 0xa3, 0x1f, 0xbf,
  0xcc, 0xc0, 0x0f, 0xbf, 0x18, 0x96, 0x9d, 0xbe, 0x11, 0xb2, 0x39, 0xbf,
  0xca, 0xb1, 0x71, 0xbe, 0x21, 0x97, 0x9d, 0x3d, 0x8e, 0xbc, 0x9d, 0xbf,
  0x53, 0xdc, 0xcc, 0x3f, 0x79, 0x90, 0x90, 0xbc, 0x4b, 0x1b, 0xd2, 0x3f,
  0x02, 0x17, 0xf3, 0x3e, 0xb5, 0xd5, 0xd6, 0x3f, 0xdf, 0xb6, 0xb9, 0x3f,
  0x05, 0xdd, 0x63, 0x3f, 0x95, 0x6c, 0xb9, 0xbe, 0xc5, 0x68, 0x61, 0x3f,
  0xa8, 0x46, 0x48, 0x3f, 0xb9, 0x4e, 0x0a, 0x3f, 0x9c, 0x09, 0x84, 0x3f,
  0x3f, 0x58, 0x9e, 0x3e, 0x65, 0xa0, 0x9c, 0x3f, 0x0f, 0x25, 0x8e, 0xbf,
  0xd6, 0xaa, 0xb5, 0xbc, 0xbb, 0x10, 0x8f, 0xc0, 0x08, 0xd3, 0xb4, 0xbe,
  0xa9, 0xad, 0x1d, 0x3d, 0x44, 0xdc, 0xd5, 0x3e, 0xad, 0xca, 0xad, 0xbe,
  0xeb, 0x1c, 0xa2, 0x3f, 0xa5, 0xca, 0x0d, 0xbf, 0x26, 0x60, 0x1d, 0x3d,
  0x01, 0x3a, 0x19, 0x3f, 0x27, 0x97, 0x70, 0x3e, 0x77, 0xa0, 0x26, 0x3f,
  0xb1, 0x0a, 0x85, 0xbe, 0x83, 0xc3, 0x2c, 0xbe, 0xbc, 0x92, 0x4a, 0xbe,
  0xfa, 0xaf, 0x00, 0x3f, 0x2a, 0xea, 0x04, 0xbf, 0xed, 0x97, 0x84, 0x3e,
  0x4b, 0x18, 0x0d, 0x3f, 0x99, 0x22, 0x45, 0xbf, 0x3c, 0x3a, 0xda, 0x3e,
  0x19, 0xc9, 0x27, 0x3d, 0x26, 0xdc, 0x97, 0xbf, 0x10, 0x26, 0xf5, 0xbe,
  0xc2, 0xb1, 0x86, 0xbf, 0x73, 0x70, 0xd5, 0x3e, 0xb3, 0xdd, 0x55, 0x3f,
  0x35, 0x9d, 0x8e, 0x3e, 0x68, 0x0b, 0x5d, 0xbf, 0x88, 0xc8, 0xa0, 0x3f,
  0xbb, 0x0c, 0xd8, 0xbd, 0xa1, 0xbe, 0xb2, 0x3d, 0x82, 0x62, 0x69, 0x3e,
  0x0c, 0xf7, 0x82, 0xbe, 0x14, 0x37, 0x82, 0xbf, 0x22, 0x6d, 0xdd, 0xbe,
  0x96, 0x33, 0x3a, 0xbf, 0xe1, 0x27, 0x8d, 0x3f, 0xdc, 0x9c, 0xa1, 0x3e,
  0x8e, 0x8c, 0xbd, 0x3d, 0x38, 0x46, 0x74, 0x3f, 0x20, 0x5c, 0x2b, 0x40,
  0x36, 0x85, 0x0e, 0xbf, 0xac, 0x00, 0xcd, 0xbe, 0x8d, 0xfa, 0x5b, 0x3f,
  0x50, 0xb0, 0x81, 0x3f, 0xe6, 0x3f, 0x16, 0x3e, 0x14, 0xef, 0x22, 0x3e,
  0xec, 0xe2, 0x7c, 0x3e, 0x88, 0xbf, 0x27, 0xbf, 0x3d, 0xa2, 0x8b, 0x3f,
  0x29, 0x01, 0x1b, 0xbe, 0x76, 0xf7, 0xfc, 0xbc, 0x44, 0xa0, 0x86, 0xbd,
  0x2e, 0xfb, 0x61, 0x3f, 0x9d, 0x07, 0xb7, 0x3e, 0x9a, 0x69, 0x8b, 0xbf,
  0xb2, 0x9f, 0x62, 0xbd, 0x40, 0xfa, 0xf4, 0x3e, 0x48, 0x8a, 0xd9, 0x3e,
  0xfb, 0xb5, 0x57, 0x3f, 0x09, 0x2f, 0xe6, 0x3e, 0xd8, 0xd0, 0x0b, 0xbf,
  0xca, 0x36, 0x9a, 0x3d, 0x8a, 0xdb, 0x8a, 0x3f, 0x38, 0x65, 0x28, 0xbd,
  0x98, 0x9f, 0xa6, 0xbd, 0xcd, 0x6b, 0xea, 0x3d, 0x13, 0xe9, 0x70, 0x40,
  0xe8, 0x90, 0x8c, 0x3f, 0xe9, 0xb0, 0xb5, 0x3a, 0xc4, 0x68, 0xc9, 0x3f,
  0xb8, 0x90, 0x6b, 0x3c, 0xa5, 0x8d, 0xce, 0x3d, 0x79, 0x65, 0x25, 0xbe,
  0xfc, 0x8c, 0x3a, 0x3c, 0x6e, 0xdd, 0x88, 0xbe, 0x2d, 0xdb, 0x0b, 0xbf,
  0x61, 0xeb, 0x22, 0xbf, 0x55, 0x2c, 0x24, 0x3f, 0x52, 0xa9, 0x1c, 0xc0,
  0xc6, 0xa0, 0xaa, 0xbf, 0x5e, 0xd1, 0xea, 0xbe, 0x51, 0xdd, 0x48, 0x3e,
  0x9c, 0xf4, 0xa7, 0x3e, 0xae, 0xb6, 0xd4, 0x3e, 0x2a, 0x20, 0x0d, 0x3f,
  0xfb, 0x58, 0xa4, 0x3d, 0x49, 0x2f, 0xbf, 0xbe, 0x9b, 0x10, 0x87, 0x3d,
  0x67, 0x2b, 0x94, 0x3e, 0x99, 0x04, 0x1d, 0x3f, 0x41, 0xf8, 0xfe, 0x3d,
  0x59, 0x19, 0xc2, 0x3e, 0x19, 0x83, 0x64, 0x3f, 0x63, 0xae, 0x82, 0x3f,
  0xdd, 0x7c, 0x87, 0xbe, 0x1d, 0x75, 0x71, 0xbe, 0x6a, 0x4e, 0xd7, 0xbe,
  0x68, 0x05, 0x45, 0x3e, 0x58, 0x18, 0x5e, 0xbf, 0x98, 0x9b, 0x1c, 0xbf,
  0x73, 0x22, 0x6b, 0xbf, 0x2b, 0x70, 0xdf, 0x3c, 0x69, 0x35, 0x51, 0x3f,
  0x9a, 0x3d, 0xa5, 0x3e, 0xc5, 0x4c, 0x07, 0x3f, 0xc4, 0x1b, 0x44, 0x3d,
  0x16, 0xe1, 0xa7, 0x3f, 0xc3, 0xf8, 0x3d, 0xbe, 0x88, 0x97, 0x62, 0x3d,
  0x7a, 0x66, 0xac, 0x3e, 0xe1, 0x42, 0x1e, 0x3e, 0xfa, 0x91, 0xd8, 0x3f,
  0x6f, 0x6c, 0x9c, 0xbf, 0x5d, 0x20, 0x87, 0x3f, 0x16, 0xad, 0xa9, 0xbe,
  0x66, 0x4e, 0x96, 0x3f, 0x1c, 0x30, 0x88, 0xbe, 0xcc, 0xf8, 0x08, 0x3d,
  0xce, 0xaf, 0x89, 0x3e, 0x91, 0xd6, 0x1e, 0xbf, 0xc1, 0x56, 0x16, 0xbf,
  0xac, 0x44, 0xf2, 0xbe, 0x84, 0x45, 0x72, 0xbf, 0x8a, 0x3e, 0x83, 0x3e,
  0x8c, 0x1d, 0xe9, 0xba, 0xff, 0xed, 0x89, 0x3e, 0x4c, 0x57, 0xf7, 0x3e,
  0xf5, 0x95, 0x15, 0x3f, 0x9e, 0x1a, 0xac, 0x3d, 0xc1, 0xbf, 0x33, 0xbf,
  0x66, 0x65, 0x5d, 0x3f, 0x82, 0x26, 0xd6, 0x3e, 0x18, 0xa5, 0xec, 0x3c,
  0xe9, 0xa4, 0xe5, 0x3d, 0x05, 0x8a, 0x98, 0x3b, 0xa7, 0xa6, 0x24, 0xbf,
  0xa0, 0x1e, 0x70, 0x3d, 0xf2, 0x12, 0x51, 0x3f, 0xca, 0xed, 0xeb, 0xbf,
  0x5b, 0x27, 0xf6, 0x3d, 0x74, 0xf6, 0x0b, 0x3e, 0x91, 0x59, 0xb4, 0x3e,
  0x07, 0xd8, 0x88, 0xbe, 0xc2, 0xb4, 0x11, 0x3f, 0x5c, 0xa3, 0xeb, 0x3d,
  0x8d, 0x7d, 0x35, 0x3f, 0xdb, 0x9c, 0x68, 0xbf, 0xc1, 0x3a, 0xf8, 0xbf,
  0x21, 0x32, 0x8c, 0xbf, 0x51, 0x46, 0x64, 0x3f, 0x78, 0x24, 0x1f, 0x3e,
  0x76, 0xb5, 0x5a, 0x3e, 0x29, 0xd1, 0x00, 0xbe, 0xd3, 0x96, 0xd7, 0x3e,
  0x42, 0x0c, 0xc9, 0x3e, 0xc6, 0x2f, 0xd1, 0x3d, 0xf6, 0x4e, 0x14, 0x3e,
  0x9b, 0x1a, 0x4c, 0xbf, 0xbb, 0x05, 0x58, 0x3e, 0xd2, 0xf9, 0x03, 0x3f,
  0x3e, 0xff, 0x3f, 0x3f, 0x90, 0xa2, 0x2b, 0x3e, 0x99, 0x24, 0xe8, 0x3e,
  0x37, 0x0d, 0xc1, 0x3e, 0x56, 0x94, 0xcc, 0xbe, 0x42, 0x99, 0x24, 0xbf,
  0x9e, 0x3f, 0x98, 0xbe, 0x33, 0xfe, 0x80, 0x3f, 0x2e, 0xa1, 0x9d, 0xbe,
  0x1d, 0x11, 0x73, 0x3f, 0x66, 0xe7, 0x45, 0x3f, 0xf4, 0x0f, 0x6c, 0x3f,
  0x1e, 0x9b, 0xd3, 0x3d, 0xe7, 0xe5, 0x96, 0x3d, 0x26, 0xf9, 0x9a, 0x3e,
  0x6a, 0x27, 0x2d, 0xbf, 0x39, 0x24, 0x09, 0xbf, 0xad, 0x92, 0x54, 0x3f,
  0x2e, 0x8e, 0x86, 0xbd, 0xdb, 0x70, 0xa4, 0x3f, 0x51, 0x39, 0xe5, 0x3e,
  0x9c, 0xbf, 0x8b, 0xbd, 0x5f, 0xb2, 0x49, 0x3e, 0x10, 0x51, 0x75, 0x3f,
  0xca, 0x53, 0x72, 0xbe, 0x38, 0x97, 0xc8, 0x3e, 0xc9, 0x26, 0xaf, 0x3d,
  0xed, 0xe2, 0x0c, 0x3e, 0x77, 0x6b, 0x3a, 0x3e, 0x55, 0x4f, 0x80, 0x3e,
  0xed, 0x4b, 0xcb, 0x3d, 0xaf, 0xe2, 0x8f, 0xbe, 0x4e, 0xdf, 0x2b, 0xbe,
  0x14, 0x95, 0xd6, 0x3e, 0xb0, 0x99, 0xc5, 0x3f, 0xea, 0x65, 0xf5, 0xbe,
  0x76, 0xfa, 0xff, 0xff, 0x10, 0x00, 0x00, 0x00, 0x06, 0x00, 0x00, 0x00,
  0x14, 0x00, 0x00, 0x00, 0x34, 0x00, 0x00, 0x00, 0x02, 0x00, 0x00, 0x00,
  0x10, 0x00, 0x00, 0x00, 0x20, 0x00, 0x00, 0x00, 0x1c, 0x00, 0x00, 0x00,
  0x73, 0x65, 0x71, 0x75, 0x65, 0x6e, 0x74, 0x69, 0x61, 0x6c, 0x5f, 0x34,
  0x2f, 0x64, 0x65, 0x6e, 0x73, 0x65, 0x5f, 0x31, 0x30, 0x2f, 0x4d, 0x61,
  0x74, 0x4d, 0x75, 0x6c, 0x00, 0x00, 0x00, 0x00, 0x0c, 0xfa, 0xff, 0xff,
  0x52, 0xfb, 0xff, 0xff, 0x04, 0x00, 0x00, 0x00, 0x80, 0x03, 0x00, 0x00,
  0x34, 0x9f, 0xb1, 0x3f, 0x58, 0x3f, 0xbb, 0x3e, 0x74, 0xd0, 0xa4, 0xbf,
  0x43, 0xb3, 0x42, 0xbd, 0x46, 0xe9, 0x14, 0x3e, 0xd5, 0x91, 0x01, 0x3f,
  0x29, 0x12, 0x17, 0x3f, 0x6c, 0x2f, 0x34, 0xbf, 0x14, 0x45, 0x82, 0xbd,
  0xe3, 0x6b, 0xf6, 0xbf, 0x8e, 0x1b, 0x2b, 0xbc, 0x39, 0x4a, 0x5b, 0xbe,
  0xcd, 0x74, 0x31, 0xbe, 0xef, 0xd7, 0xa0, 0xbf, 0x87, 0x50, 0x98, 0xbf,
  0xb4, 0x6c, 0xac, 0x3f, 0x05, 0x57, 0x47, 0xbf, 0xb7, 0xa8, 0x9f, 0xbe,
  0x91, 0xbf, 0xf1, 0x3d, 0x00, 0x94, 0x38, 0xbe, 0xb6, 0xf7, 0x4e, 0xbe,
  0x80, 0x81, 0xdb, 0xbf, 0xe4, 0xc0, 0xe0, 0xbf, 0xa8, 0xf5, 0x67, 0xbf,
  0x0d, 0x52, 0x82, 0xbd, 0x87, 0x0c, 0x30, 0x3d, 0x6f, 0xde, 0x2e, 0x3e,
  0xe0, 0x10, 0x00, 0xbc, 0xa6, 0x58, 0xcb, 0x3f, 0xce, 0xee, 0x68, 0xbf,
  0xf0, 0x15, 0x77, 0xbf, 0x8d, 0xc9, 0xa9, 0xbd, 0x25, 0x67, 0xcb, 0xbe,
  0xd2, 0x98, 0x6e, 0x3e, 0xd0, 0x9a, 0xa3, 0xbb, 0x8b, 0xfe, 0xff, 0x3e,
  0x2c, 0xcf, 0x09, 0xc0, 0x3f, 0x8a, 0x7e, 0xbf, 0x4e, 0xd4, 0xd7, 0x3d,
  0x0c, 0xc7, 0x52, 0x3d, 0x74, 0xca, 0x78, 0x3d, 0x41, 0x6e, 0x01, 0x3f,
  0xf3, 0xb5, 0x58, 0x3d, 0x1a, 0xda, 0x6c, 0xbf, 0x73, 0xa1, 0x34, 0xbf,
  0x83, 0x35, 0x95, 0x3d, 0xff, 0xdb, 0xdf, 0xbd, 0x98, 0xb8, 0xa9, 0x3c,
  0xc0, 0xf9, 0x20, 0xc0, 0x57, 0x95, 0x36, 0xbf, 0xfc, 0xeb, 0x86, 0xbf,
  0xd3, 0xa9, 0xbc, 0x3e, 0x0d, 0xee, 0x71, 0x3e, 0x90, 0xa1, 0x2c, 0xbf,
  0x8e, 0xce, 0x06, 0xbe, 0xbc, 0x51, 0x8f, 0x3e, 0xd6, 0x60, 0x91, 0xbe,
  0x85, 0xad, 0x56, 0xbf, 0xbf, 0x59, 0x4d, 0x3f, 0x76, 0x57, 0xfc, 0xbd,
  0xa3, 0x26, 0x39, 0x3b, 0x14, 0xdd, 0xae, 0xbc, 0xff, 0x3b, 0x17, 0xbe,
  0xef, 0xf8, 0x24, 0xbe, 0x05, 0x3e, 0xd1, 0x3e, 0xc0, 0x06, 0xdc, 0xbd,
  0x1b, 0xb5, 0xef, 0x3e, 0x94, 0x60, 0x36, 0xbf, 0xbf, 0x40, 0x8f, 0x3f,
  0x04, 0xee, 0x23, 0xbc, 0xf1, 0xdf, 0x34, 0x3e, 0x9f, 0x41, 0x0b, 0xbf,
  0xed, 0x04, 0x9f, 0x3e, 0x1f, 0x6e, 0xfb, 0xbc, 0xb4, 0x63, 0x02, 0xbe,
  0x29, 0x48, 0x0b, 0xbf, 0xf9, 0x64, 0x99, 0x3f, 0x2b, 0x11, 0xb9, 0x3e,
  0xa4, 0x46, 0x69, 0xbd, 0xf4, 0x81, 0x21, 0x3c, 0xc7, 0x38, 0x46, 0xbd,
  0x97, 0x7f, 0xb5, 0x3d, 0x5d, 0x7d, 0xbc, 0xbd, 0x7c, 0xaf, 0x2c, 0xc0,
  0xaf, 0x96, 0x50, 0xbf, 0x08, 0xa4, 0x19, 0xbf, 0x51, 0xfc, 0x70, 0x3f,
  0xce, 0x68, 0xf0, 0x3c, 0xed, 0x20, 0xa1, 0x3f, 0x9a, 0xc9, 0x0a, 0x3e,
  0x6e, 0x3c, 0x09, 0xbd, 0x80, 0x93, 0x7c, 0xbe, 0xb4, 0x62, 0x78, 0xbd,
  0xc1, 0x04, 0xfc, 0xbd, 0xb8, 0xb7, 0xfa, 0x3c, 0x7b, 0xf5, 0xc8, 0x3b,
  0xe2, 0xfd, 0x20, 0x3d, 0x3a, 0x88, 0x76, 0xc0, 0x45, 0x90, 0x99, 0x3f,
  0x03, 0xd1, 0x39, 0x3f, 0xa0, 0xf0, 0x9c, 0x3f, 0x3e, 0x5c, 0x6d, 0x3d,
  0xe8, 0x5b, 0xe8, 0x3c, 0x87, 0x61, 0x53, 0x3e, 0x2d, 0x02, 0x67, 0xbe,
  0x4a, 0xa2, 0x4a, 0x3f, 0x45, 0x45, 0x11, 0xbd, 0x95, 0x0a, 0x73, 0xbe,
  0x36, 0xbb, 0x3f, 0xbd, 0x69, 0x48, 0xf4, 0xbd, 0xa7, 0x7a, 0xca, 0xbb,
  0x9c, 0x9e, 0x67, 0xc0, 0xe6, 0x67, 0xc0, 0xbe, 0xf3, 0x09, 0xf7, 0xbe,
  0x28, 0x1c, 0xd6, 0x3f, 0xf5, 0x7f, 0xe1, 0x3c, 0x6c, 0xa8, 0xa8, 0xbd,
  0xa0, 0x17, 0x44, 0xbd, 0x1e, 0x60, 0x1b, 0xc0, 0xa1, 0x4f, 0x87, 0xbd,
  0x50, 0xdf, 0x96, 0x3f, 0x51, 0xa7, 0x81, 0x3f, 0xb7, 0x95, 0xe8, 0x3c,
  0x4a, 0x9f, 0x3b, 0x3e, 0x8c, 0x25, 0x10, 0x3e, 0xc8, 0xac, 0x22, 0x3e,
  0xda, 0xfc, 0x25, 0xbf, 0x12, 0x90, 0x99, 0xbf, 0xb3, 0xb8, 0x57, 0xbf,
  0x0b, 0xd1, 0x9e, 0x3d, 0x2f, 0xd9, 0x6b, 0x3f, 0xf8, 0x62, 0x5e, 0x3f,
  0x6d, 0xc3, 0xaa, 0x3d, 0x84, 0xff, 0x32, 0x3f, 0xaf, 0x20, 0x3b, 0xc0,
  0x9e, 0xf4, 0x24, 0xbe, 0x8d, 0x27, 0x35, 0x3d, 0x0f, 0x4c, 0x81, 0xbe,
  0xf3, 0xe5, 0x95, 0x3c, 0x7a, 0xcb, 0x3b, 0xbf, 0x00, 0x47, 0xf1, 0xbc,
  0xe5, 0xfe, 0x1f, 0xbc, 0x92, 0x87, 0xc6, 0x3b, 0x0c, 0x03, 0x9f, 0x3e,
  0x69, 0x3c, 0xd9, 0xbf, 0xbb, 0xec, 0x4d, 0xbf, 0xf6, 0x69, 0x11, 0x3d,
  0xed, 0xe0, 0xd8, 0xbe, 0xce, 0xdb, 0x0c, 0xbe, 0xac, 0xe2, 0xd3, 0x3e,
  0x9e, 0x04, 0x30, 0xbe, 0xec, 0xaf, 0x83, 0x3f, 0x5f, 0x24, 0xac, 0xbf,
  0x47, 0x13, 0x1e, 0xbc, 0xb0, 0x4b, 0x9e, 0xbf, 0x49, 0x6f, 0x57, 0xbf,
  0xf1, 0x02, 0x48, 0x3f, 0xed, 0xfc, 0x56, 0xbd, 0xce, 0x0e, 0x8c, 0xbe,
  0x0d, 0x6d, 0xa9, 0x3e, 0x67, 0xde, 0xa0, 0x3d, 0x4e, 0x5e, 0xa4, 0x3e,
  0x49, 0xcf, 0x93, 0x3f, 0x48, 0x59, 0x5a, 0xbe, 0x42, 0x26, 0x43, 0xbe,
  0x22, 0x9b, 0x31, 0x3f, 0x65, 0xb4, 0x5a, 0xbf, 0xab, 0xd4, 0x4d, 0x3e,
  0x07, 0x92, 0xc5, 0x3d, 0xba, 0x8e, 0xde, 0xbe, 0xe1, 0xad, 0x8e, 0xbe,
  0xe3, 0xc5, 0xbd, 0xbc, 0x93, 0xd4, 0xf5, 0xbe, 0x59, 0x38, 0x80, 0x3e,
  0x39, 0xd1, 0x8c, 0x3f, 0xcc, 0xde, 0x83, 0x3f, 0xd6, 0x30, 0x22, 0x3f,
  0xe1, 0x06, 0x5f, 0x3f, 0xa2, 0xf4, 0x98, 0xbd, 0x25, 0x2b, 0x7c, 0x3e,
  0xf4, 0x2c, 0x7e, 0x3d, 0x5b, 0xb0, 0x26, 0xbf, 0x3a, 0x14, 0xad, 0x3f,
  0xfe, 0x34, 0x45, 0x3d, 0xd4, 0x22, 0xfe, 0xbe, 0xec, 0x68, 0x27, 0x3e,
  0x5e, 0x40, 0x81, 0x3e, 0x23, 0xa1, 0x37, 0x3f, 0x1c, 0x07, 0xb2, 0x3d,
  0x29, 0x82, 0xc9, 0xbd, 0x95, 0x31, 0x23, 0xbe, 0x28, 0x17, 0x1c, 0x3f,
  0x84, 0x34, 0x1e, 0x3c, 0xae, 0xc8, 0x15, 0xbd, 0x1a, 0xa5, 0x15, 0x3b,
  0xa4, 0x47, 0x07, 0x40, 0x7f, 0xd4, 0x32, 0x3e, 0xaf, 0xa8, 0xc4, 0x3f,
  0x74, 0x0a, 0x71, 0x3e, 0xd6, 0xa9, 0x16, 0x3e, 0x19, 0xd7, 0xda, 0xbe,
  0x1f, 0x35, 0x1d, 0xbe, 0x48, 0xc7, 0x81, 0x3e, 0x7a, 0x5e, 0x09, 0xbd,
  0x29, 0x5a, 0x1a, 0x3d, 0xf2, 0xbc, 0xb4, 0x3c, 0x44, 0xbb, 0x8d, 0xbf,
  0xcf, 0xf9, 0xbf, 0xbe, 0xf2, 0xd5, 0x14, 0x3f, 0x85, 0x09, 0xff, 0xbb,
  0x37, 0x7c, 0xb1, 0xbc, 0xe8, 0xe5, 0xe3, 0xbd, 0xde, 0xbd, 0xad, 0x3f,
  0xd0, 0x3a, 0x3f, 0x3c, 0x09, 0x26, 0x7d, 0x3e, 0xd8, 0x5a, 0x48, 0x3f,
  0x8f, 0xc5, 0x7a, 0x3d, 0x71, 0x48, 0x2b, 0xbf, 0x3f, 0x36, 0x99, 0x3e,
  0x2d, 0xb5, 0x77, 0x3f, 0x10, 0x9a, 0x2b, 0xbe, 0x38, 0x84, 0x90, 0xbe,
  0x48, 0x26, 0x2a, 0x3d, 0x98, 0x1a, 0xec, 0x3c, 0x4a, 0xfe, 0xff, 0xff,
  0x10, 0x00, 0x00, 0x00, 0x05, 0x00, 0x00, 0x00, 0x14, 0x00, 0x00, 0x00,
  0x30, 0x00, 0x00, 0x00, 0x02, 0x00, 0x00, 0x00, 0x20, 0x00, 0x00, 0x00,
  0x07, 0x00, 0x00, 0x00, 0x1b, 0x00, 0x00, 0x00, 0x73, 0x65, 0x71, 0x75,
  0x65, 0x6e, 0x74, 0x69, 0x61, 0x6c, 0x5f, 0x34, 0x2f, 0x64, 0x65, 0x6e,
  0x73, 0x65, 0x5f, 0x39, 0x2f, 0x4d, 0x61, 0x74, 0x4d, 0x75, 0x6c, 0x00,
  0xdc, 0xfd, 0xff, 0xff, 0x22, 0xff, 0xff, 0xff, 0x04, 0x00, 0x00, 0x00,
  0x40, 0x00, 0x00, 0x00, 0x39, 0x6c, 0x56, 0x3e, 0x14, 0x21, 0xc3, 0x3e,
  0xd8, 0xeb, 0x1b, 0xbf, 0xeb, 0x93, 0x02, 0x3f, 0xb5, 0xc2, 0xec, 0x3f,
  0x51, 0x63, 0x02, 0xbe, 0x3c, 0xed, 0x74, 0x3d, 0x77, 0x69, 0xf7, 0x3e,
  0xe7, 0x55, 0x2d, 0x3f, 0xd2, 0xf3, 0x1c, 0xbf, 0x2c, 0xf4, 0x80, 0xbe,
  0x21, 0x1a, 0xf1, 0xbe, 0x1f, 0x91, 0xf2, 0x3e, 0x3b, 0xc1, 0x57, 0xbf,
  0x2e, 0xb8, 0x7f, 0x3f, 0x48, 0x51, 0xc8, 0xbe, 0xda, 0xfe, 0xff, 0xff,
  0x10, 0x00, 0x00, 0x00, 0x04, 0x00, 0x00, 0x00, 0x10, 0x00, 0x00, 0x00,
  0x20, 0x00, 0x00, 0x00, 0x01, 0x00, 0x00, 0x00, 0x10, 0x00, 0x00, 0x00,
  0x0d, 0x00, 0x00, 0x00, 0x64, 0x65, 0x6e, 0x73, 0x65, 0x5f, 0x31, 0x30,
  0x2f, 0x62, 0x69, 0x61, 0x73, 0x00, 0x00, 0x00, 0x5c, 0xfe, 0xff, 0xff,
  0xa2, 0xff, 0xff, 0xff, 0x04, 0x00, 0x00, 0x00, 0x18, 0x00, 0x00, 0x00,
  0x95, 0xed, 0xdc, 0xbf, 0x8f, 0xc9, 0x1a, 0x40, 0x1c, 0x71, 0x7b, 0xbf,
  0x52, 0xa9, 0x99, 0x3f, 0xb0, 0x70, 0x3d, 0x3e, 0x95, 0x23, 0x2c, 0x3f,
  0x32, 0xff, 0xff, 0xff, 0x10, 0x00, 0x00, 0x00, 0x03, 0x00, 0x00, 0x00,
  0x10, 0x00, 0x00, 0x00, 0x24, 0x00, 0x00, 0x00, 0x01, 0x00, 0x00, 0x00,
  0x06, 0x00, 0x00, 0x00, 0x0d, 0x00, 0x00, 0x00, 0x64, 0x65, 0x6e, 0x73,
  0x65, 0x5f, 0x31, 0x31, 0x2f, 0x62, 0x69, 0x61, 0x73, 0x00, 0x00, 0x00,
  0x04, 0x00, 0x06, 0x00, 0x04, 0x00, 0x00, 0x00, 0x00, 0x00, 0x06, 0x00,
  0x08, 0x00, 0x04, 0x00, 0x06, 0x00, 0x00, 0x00, 0x04, 0x00, 0x00, 0x00,
  0x80, 0x00, 0x00, 0x00, 0xa3, 0xcd, 0xfe, 0x3e, 0xbf, 0x15, 0x9c, 0xbd,
  0xee, 0x3c, 0xc5, 0x3c, 0x82, 0xde, 0x9a, 0x3d, 0x66, 0x45, 0x28, 0x3f,
  0x5f, 0x99, 0xdc, 0x3e, 0x4e, 0x01, 0x3a, 0xbf, 0xde, 0x2e, 0xcc, 0x3d,
  0x1a, 0x49, 0x8a, 0x3f, 0xe5, 0x2a, 0xb9, 0xbe, 0x67, 0x3d, 0xb5, 0x3d,
  0xf7, 0xaf, 0x76, 0xbf, 0x99, 0xa4, 0xfb, 0xbd, 0xaf, 0xec, 0xd4, 0xbe,
  0xd0, 0x1b, 0xff, 0xbe, 0xc1, 0x82, 0x48, 0xbe, 0xe0, 0xf1, 0x82, 0xbf,
  0xe1, 0x7b, 0x46, 0xbe, 0x1e, 0x0a, 0xb9, 0x3e, 0xe4, 0xae, 0x71, 0xbe,
  0x70, 0x02, 0x16, 0x3d, 0x53, 0x79, 0xe5, 0xbd, 0x36, 0xbd, 0x08, 0xbf,
  0x1c, 0xbe, 0x91, 0xbc, 0xcd, 0x14, 0xaa, 0x3d, 0x2a, 0x36, 0xa8, 0x3f,
  0x7a, 0x1e, 0x0b, 0xbf, 0x38, 0x26, 0x18, 0x3f, 0xac, 0x27, 0x60, 0x3f,
  0x63, 0x8b, 0xa5, 0xbc, 0x02, 0xf0, 0x94, 0xbf, 0x3c, 0xb5, 0x1f, 0x3f,
  0x00, 0x00, 0x0e, 0x00, 0x14, 0x00, 0x04, 0x00, 0x00, 0x00, 0x08, 0x00,
  0x0c, 0x00, 0x10, 0x00, 0x0e, 0x00, 0x00, 0x00, 0x10, 0x00, 0x00, 0x00,
  0x02, 0x00, 0x00, 0x00, 0x10, 0x00, 0x00, 0x00, 0x20, 0x00, 0x00, 0x00,
  0x01, 0x00, 0x00, 0x00, 0x20, 0x00, 0x00, 0x00, 0x0c, 0x00, 0x00, 0x00,
  0x64, 0x65, 0x6e, 0x73, 0x65, 0x5f, 0x39, 0x2f, 0x62, 0x69, 0x61, 0x73,
  0x00, 0x00, 0x00, 0x00, 0x90, 0xff, 0xff, 0xff, 0x14, 0x00, 0x18, 0x00,
  0x04, 0x00, 0x00, 0x00, 0x08, 0x00, 0x0c, 0x00, 0x10, 0x00, 0x00, 0x00,
  0x00, 0x00, 0x14, 0x00, 0x14, 0x00, 0x00, 0x00, 0x14, 0x00, 0x00, 0x00,
  0x01, 0x00, 0x00, 0x00, 0x24, 0x00, 0x00, 0x00, 0x44, 0x00, 0x00, 0x00,
  0x10, 0x00, 0x00, 0x00, 0x02, 0x00, 0x00, 0x00, 0x01, 0x00, 0x00, 0x00,
  0x07, 0x00, 0x00, 0x00, 0x02, 0x00, 0x00, 0x00, 0xff, 0xff, 0xff, 0xff,
  0x07, 0x00, 0x00, 0x00, 0x1f, 0x00, 0x00, 0x00, 0x73, 0x65, 0x72, 0x76,
  0x69, 0x6e, 0x67, 0x5f, 0x64, 0x65, 0x66, 0x61, 0x75, 0x6c, 0x74, 0x5f,
  0x64, 0x65, 0x6e, 0x73, 0x65, 0x5f, 0x39, 0x5f, 0x69, 0x6e, 0x70, 0x75,
  0x74, 0x3a, 0x30, 0x00, 0xfc, 0xff, 0xff, 0xff, 0x04, 0x00, 0x04, 0x00,
  0x04, 0x00, 0x00, 0x00
};
const int tfliteModel_len = 5224;
